<unk>	0
。。	-0
20	-1
19	-2
香港	-3
一個	-4
可以	-5
201	-6
200	-7
中國	-8
同埋	-9
▁佢	-10
之後	-11
入面	-12
而家	-13
呢個	-14
:。。	-15
廣州	-16
日本	-17
10	-18
),	-19
開始	-20
好多	-21
▁19	-22
系啊	-23
▁喺	-24
)。。	-25
所以	-26
係香港	-27
廣東	-28
因為	-29
電視	-30
12	-31
足球	-32
公司	-33
或者	-34
政府	-35
▁。。	-36
▁,	-37
」。。	-38
18	-39
」,	-40
其中	-41
199	-42
都係	-43
第一	-44
▁呢	-45
▁201	-46
美國	-47
嘅一	-48
主要	-49
00	-50
代表	-51
係中國	-52
世界	-53
不過	-54
但係	-55
佢哋	-56
11	-57
▁(	-58
▁哦	-59
係一	-60
包括	-61
好似	-62
英文	-63
▁而	-64
自己	-65
大學	-66
地區	-67
唔同	-68
係日本	-69
就係	-70
人口	-71
▁係	-72
電影	-73
▁200	-74
之間	-75
嗰陣	-76
即係	-77
地方	-78
果啲	-79
時間	-80
由於	-81
▁我	-82
節目	-83
英國	-84
第二	-85
國家	-86
之一	-87
15	-88
去到	-89
巴士	-90
又叫	-91
198	-92
30	-93
其他	-94
學校	-95
如果	-96
已經	-97
都有	-98
成為	-99
公里	-100
▁《	-101
兩個	-102
年代	-103
研究	-104
曾經	-105
唔係	-106
發展	-107
可能	-108
中心	-109
▁系啊	-110
有啲	-111
佢嘅	-112
16	-113
呢啲	-114
人民	-115
即系	-116
足球員	-117
中華	-118
公園	-119
▁咁	-120
▁大	-121
國際	-122
▁你	-123
選舉	-124
例如	-125
數字	-126
遊戲	-127
17	-128
最後	-129
文化	-130
14	-131
音樂	-132
唔系	-133
通常	-134
世紀	-135
運動	-136
嗰時	-137
13	-138
嘅人	-139
歌手	-140
面積	-141
成立	-142
》,	-143
▁有	-144
九龍	-145
▁嗯	-146
出現	-147
正式	-148
服務	-149
平方	-150
之前	-151
車站	-152
當時	-153
係日本足球員	-154
一齊	-155
澳門	-156
大陸	-157
一般	-158
比較	-159
可以係	-160
年嘅	-161
效力	-162
▁系	-163
亦係	-164
建築	-165
出嚟	-166
司職	-167
行政	-168
雖然	-169
先至	-170
共和	-171
唔知	-172
部分	-173
▁呢個	-174
、《	-175
多數	-176
社會	-177
委員	-178
經濟	-179
▁同	-180
廣州市	-181
聽到	-182
重有	-183
▁喂	-184
問題	-185
馬路	-186
影響	-187
系統	-188
政治	-189
)、	-190
中學	-191
,201	-192
197	-193
28	-194
設計	-195
係指	-196
自然	-197
另外	-198
一直	-199
字母	-200
▁嚇	-201
》、《	-202
果度	-203
當中	-204
法國	-205
動物	-206
都會	-207
嘅一個	-208
叫做	-209
▁香港	-210
25	-211
一啲	-212
地鐵	-213
喺香港	-214
科學	-215
活動	-216
無綫	-217
中央	-218
期間	-219
▁.	-220
之間嘅	-221
參加	-222
北京	-223
個人	-224
部份	-225
嗰度	-226
方面	-227
城市	-228
共和國	-229
出名	-230
臺灣	-231
語言	-232
管理	-233
23	-234
果個	-235
今日	-236
歷史	-237
拉丁	-238
發現	-239
,200	-240
結果	-241
24	-242
成日	-243
認為	-244
一樣	-245
位置	-246
除咗	-247
演員	-248
▁不過	-249
平方公里	-250
工作	-251
22	-252
同時	-253
教育	-254
▁199	-255
跟住	-256
分別	-257
鐵路	-258
組織	-259
啊嘛	-260
而且	-261
主持	-262
附近	-263
醫院	-264
歐洲	-265
》。。	-266
唔到	-267
用嚟	-268
出世	-269
21	-270
▁啊	-271
都唔	-272
民國	-273
星期	-274
時期	-275
電腦	-276
50	-277
無綫電視	-278
亦有	-279
機場	-280
上面	-281
主義	-282
▁由於	-283
交通	-284
學生	-285
有冇	-286
加入	-287
大嘅	-288
196	-289
工程	-290
為咗	-291
根據	-292
總統	-293
唔少	-294
進行	-295
一種	-296
成員	-297
26	-298
學院	-299
甚至	-300
人嘅	-301
拼音	-302
委員會	-303
上海	-304
第三	-305
舉行	-306
唔使	-307
十二	-308
一條	-309
一間	-310
廣東話	-311
得到	-312
係中國廣東	-313
負責	-314
▁"	-315
所有	-316
計劃	-317
電話	-318
單位	-319
▁一	-320
新界	-321
後來	-322
植物	-323
提供	-324
▁而家	-325
嗰啲	-326
係由	-327
以及	-328
等等	-329
亞洲	-330
作品	-331
有好多	-332
變成	-333
體育	-334
聲調	-335
重要	-336
台灣	-337
月台	-338
27	-339
係一個	-340
▁前	-341
同阿	-342
喺度	-343
東南	-344
嘅大	-345
特別	-346
屋企	-347
▁)	-348
簡稱	-349
民主	-350
呢度	-351
▁西	-352
組成	-353
議員	-354
到咗	-355
獨立	-356
應該	-357
決定	-358
做過	-359
拉丁字母	-360
令到	-361
係一種	-362
▁因為	-363
時候	-364
用嘅	-365
有限	-366
中文	-367
關係	-368
印度	-369
家下	-370
直到	-371
」、	-372
攞到	-373
製作	-374
29	-375
咁樣	-376
亦都	-377
傳統	-378
年到	-379
藝術	-380
比賽	-381
東北	-382
就會	-383
2019	-384
都系	-385
上嘅	-386
最高	-387
生活	-388
唔會	-389
人民共和國	-390
意思	-391
冠軍	-392
中國大陸	-393
▁另外	-394
澳洲	-395
超過	-396
公路	-397
德國	-398
演唱	-399
發生	-400
剌伯	-401
..	-402
情況	-403
全國	-404
粵語	-405
裏面	-406
主席	-407
球場	-408
立法	-409
通過	-410
禮拜	-411
需要	-412
▁但	-413
40	-414
我地	-415
入面嘅	-416
系嘛	-417
都冇	-418
唔好	-419
集團	-420
▁_	-421
年開始	-422
系列	-423
學家	-424
於是	-425
聯合	-426
,19	-427
中華人民共和國	-428
一定	-429
人類	-430
串字	-431
原本	-432
主演	-433
畢業	-434
改名	-435
▁廣東話	-436
之外	-437
一次	-438
設施	-439
▁南	-440
聯賽	-441
屬於	-442
▁嘅	-443
皇帝	-444
」、「	-445
紀念	-446
有關	-447
100	-448
成功	-449
▁但係	-450
新聞	-451
60	-452
邊度	-453
基本	-454
▁198	-455
推出	-456
唔多	-457
啲人	-458
經過	-459
表示	-460
國民	-461
以前	-462
嘅話	-463
係喺	-464
畀人	-465
因爲	-466
生物	-467
▁阿	-468
支持	-469
數字代表	-470
同阿剌伯	-471
㗎啦	-472
銀行	-473
數字串字	-474
當地	-475
▁雖然	-476
▁廣東話拼音	-477
時代	-478
條路	-479
公共	-480
咁啊	-481
數字代表聲調	-482
同阿剌伯數字串字	-483
拉丁字母同阿剌伯數字串字	-484
方法	-485
▁冇	-486
成個	-487
其中一個	-488
000	-489
繼續	-490
(;	-491
▁李	-492
議會	-493
個名	-494
▁之後	-495
睇下	-496
▁-	-497
有限公司	-498
效力過	-499
幾個	-500
專輯	-501
就系	-502
,199	-503
31	-504
以下	-505
共有	-506
中場	-507
一帶	-508
系咪	-509
嘅嘢	-510
邊嘅	-511
自然數	-512
——	-513
航空	-514
西南	-515
三個	-516
自由	-517
羅斯	-518
起好	-519
神經	-520
中華民國	-521
▁第	-522
環境	-523
覺得	-524
只係	-525
因此	-526
現代	-527
俾人	-528
技術	-529
網絡	-530
佢喺	-531
嘅地方	-532
:「	-533
能夠	-534
大利	-535
係種	-536
大道	-537
羅馬	-538
有時	-539
交界	-540
要求	-541
▁1	-542
事件	-543
班牙	-544
▁全	-545
事務	-546
之間嘅自然數	-547
細胞	-548
嘅名	-549
角色	-550
大廈	-551
開放	-552
有一	-553
電子	-554
電視劇	-555
嘅地	-556
工業	-557
太陽	-558
呢種	-559
有人	-560
2010	-561
十一	-562
其實	-563
見到	-564
分鐘	-565
呢個站	-566
出咗	-567
▁3	-568
保護	-569
廣場	-570
▁係拉丁字母同阿剌伯數字串字	-571
標準	-572
越南	-573
人士	-574
範圍	-575
都好	-576
搞到	-577
邊個	-578
清楚	-579
2016	-580
位於	-581
西北	-582
,「	-583
意大利	-584
最佳	-585
地球	-586
▁個	-587
出嘅	-588
機構	-589
深圳	-590
娛樂	-591
大約	-592
▁中	-593
2017	-594
▁「	-595
居民	-596
俄羅斯	-597
程式	-598
▁新	-599
利亞	-600
使用	-601
處理	-602
▁馬	-603
普通	-604
過程	-605
▁黃	-606
受到	-607
合作	-608
會議	-609
市場	-610
西班牙	-611
咩啊	-612
萬人	-613
總面積	-614
直接	-615
方式	-616
》(	-617
有個	-618
共產	-619
▁即系	-620
嘅係	-621
45	-622
做咗	-623
首府	-624
太平	-625
加拿	-626
作為	-627
西亞	-628
▁、	-629
差唔多	-630
乘客	-631
全部	-632
加上	-633
▁天	-634
2007	-635
流行	-636
收費	-637
廣播	-638
195	-639
佢係	-640
產生	-641
年間	-642
▁東	-643
嚟講	-644
▁三	-645
嘅一種	-646
就喺	-647
曾經喺	-648
字係	-649
行為	-650
▁18	-651
生產	-652
返嚟	-653
參與	-654
法文	-655
幾時	-656
區嘅	-657
主教	-658
商業	-659
2015	-660
就有	-661
控制	-662
幾多	-663
約莫	-664
尼亞	-665
2006	-666
大概	-667
同佢	-668
學名	-669
2008	-670
佢話	-671
遊樂	-672
第一次	-673
嗰邊	-674
70	-675
▁如果	-676
另一	-677
並且	-678
理論	-679
出入	-680
功能	-681
戰爭	-682
職業	-683
▁後	-684
都可以	-685
嗰個	-686
宣佈	-687
熱帶	-688
任何	-689
舊時	-690
▁佢喺	-691
帝國	-692
形成	-693
▁陳	-694
革命	-695
唔同嘅	-696
花園	-697
其中一	-698
中山	-699
啊你	-700
民族	-701
:00	-702
加拿大	-703
」(	-704
路嘅	-705
訓練	-706
飛機	-707
▁唔	-708
大埔	-709
用咗	-710
最大	-711
二十	-712
49	-713
2012	-714
中間	-715
主幹	-716
行星	-717
啊我	-718
品種	-719
藝員	-720
街道	-721
司職中場	-722
死咗	-723
廣東省	-724
重新	-725
真系	-726
號綫	-727
係美國	-728
旅遊	-729
方便	-730
會有	-731
果邊	-732
半島	-733
湖南	-734
颱風	-735
主幹道	-736
2018	-737
都要	-738
酒店	-739
下嘅	-740
▁),	-741
2009	-742
基督	-743
遊樂場	-744
好啊	-745
規劃	-746
2014	-747
嘅第	-748
完全	-749
呢條	-750
▁5	-751
全球	-752
你你	-753
內容	-754
35	-755
後衞	-756
朋友	-757
每年	-758
2011	-759
▁佢係	-760
媒體	-761
自己嘅	-762
90	-763
.5	-764
主角	-765
▁所以	-766
""	-767
小學	-768
面嘅	-769
碼頭	-770
元素	-771
發行	-772
80	-773
仲有	-774
電視台	-775
喺中國	-776
2013	-777
物理	-778
藝人	-779
唱片	-780
開發	-781
係大	-782
演出	-783
隧道	-784
玩家	-785
>。。	-786
一年	-787
能力	-788
▁佢嘅	-789
主題	-790
得閒	-791
結構	-792
地下	-793
2005	-794
路線	-795
相對	-796
自治	-797
希臘	-798
唯一	-799
過去	-800
諗住	-801
女子	-802
歌曲	-803
倫敦	-804
一路	-805
年度	-806
機會	-807
立法會	-808
咗嘅	-809
建立	-810
好大	-811
係用	-812
實驗	-813
數學	-814
共產黨	-815
小說	-816
然後	-817
2000	-818
▁6	-819
乜嘢	-820
鍾意	-821
入咗	-822
故仔	-823
之中	-824
到時	-825
尤其	-826
「」	-827
更加	-828
投票	-829
佢做	-830
維基	-831
返去	-832
中共	-833
十三	-834
:)	-835
最多	-836
:30	-837
▁其中	-838
某啲	-839
同年	-840
會喺	-841
格蘭	-842
▁海	-843
▁4	-844
十五	-845
▁2	-846
嘅時候	-847
前鋒	-848
▁」	-849
白雲	-850
韓國	-851
馬來	-852
嚟自	-853
代表隊	-854
咁你	-855
常見	-856
將軍	-857
數據	-858
36	-859
老公	-860
響度	-861
出版	-862
平均	-863
去過	-864
反對	-865
調查	-866
,198	-867
個仔	-868
▁北	-869
朝鮮	-870
37	-871
公元	-872
2003	-873
目前	-874
沙田	-875
▁佢哋	-876
版本	-877
▁2016	-878
開咗	-879
2004	-880
38	-881
東京	-882
(,	-883
左右	-884
▁由	-885
走向	-886
導演	-887
設有	-888
號開始	-889
各種	-890
相當	-891
行動	-892
人同	-893
群島	-894
▁根據	-895
頻道	-896
依家	-897
演唱會	-898
佢哋嘅	-899
化學	-900
接受	-901
方向	-902
獲得	-903
市民	-904
起咗	-905
個月	-906
安全	-907
初期	-908
點啊	-909
咁多	-910
宗教	-911
▁呢個站	-912
定義	-913
▁金	-914
只有	-915
連接	-916
係法國	-917
知道	-918
<>。。	-919
性嘅	-920
造成	-921
高速	-922
,000	-923
足球代表隊	-924
列車	-925
顯示	-926
十八	-927
▁10	-928
係中國廣東廣州	-929
▁最	-930
▁當	-931
南京	-932
在位	-933
形式	-934
存在	-935
▁中國	-936
我話	-937
科技	-938
學習	-939
電台	-940
各地	-941
擔任	-942
表演	-943
係黃	-944
48	-945
文學	-946
中嘅	-947
▁唉	-948
原名	-949
為主	-950
司職後衞	-951
人員	-952
細路	-953
▁高	-954
先後	-955
嘅一條	-956
搵到	-957
泰國	-958
美洲	-959
越秀	-960
▁8	-961
就可以	-962
加粗	-963
實際	-964
點樣	-965
▁上	-966
執導	-967
西蘭	-968
出來	-969
淨係	-970
珠江	-971
非常	-972
▁好	-973
嗰陣時	-974
小姐	-975
合併	-976
身體	-977
南北	-978
播出	-979
聯盟	-980
47	-981
一日	-982
睇到	-983
位置喺	-984
聽唔	-985
佢地	-986
名嘅	-987
▁小	-988
嶺南	-989
係英國	-990
巴西	-991
區議會	-992
出去	-993
點解	-994
老婆	-995
攞咗	-996
面係	-997
組合	-998
自動	-999
字係主幹道	-1000
▁到咗	-1001
之下	-1002
月初	-1003
稱為	-1004
大型	-1005
46	-1006
原因	-1007
圖書	-1008
唔可以	-1009
▁2017	-1010
區域	-1011
源自	-1012
第四	-1013
資料	-1014
超級	-1015
原子	-1016
一座	-1017
車道	-1018
每個	-1019
相關	-1020
荃灣	-1021
年成立	-1022
規模	-1023
領導	-1024
企業	-1025
最大嘅	-1026
年喺	-1027
創作	-1028
好多時	-1029
人物	-1030
提出	-1031
加坡	-1032
制度	-1033
號到	-1034
首都	-1035
乜野	-1036
參選	-1037
官方	-1038
方案	-1039
阿媽	-1040
改名做	-1041
啟用	-1042
市區	-1043
法律	-1044
總部	-1045
▁197	-1046
新嘅	-1047
專門	-1048
球隊	-1049
32	-1050
▁9	-1051
▁到	-1052
出場	-1053
愛爾	-1054
分為	-1055
舉辦	-1056
營運	-1057
創辦	-1058
夜晚	-1059
年至	-1060
現象	-1061
機械	-1062
會用	-1063
本身	-1064
運動會	-1065
▁張	-1066
資訊	-1067
透過	-1068
愛爾蘭	-1069
希望	-1070
訊息	-1071
▁;	-1072
為止	-1073
大量	-1074
衛視	-1075
十六	-1076
早期	-1077
觀眾	-1078
1.	-1079
34	-1080
39	-1081
廣告	-1082
書院	-1083
▁7	-1084
出道	-1085
所謂	-1086
最終	-1087
規定	-1088
仍然	-1089
取代	-1090
係有	-1091
完成	-1092
概念	-1093
咗一	-1094
、、	-1095
分析	-1096
簡單	-1097
運輸	-1098
1,	-1099
統一	-1100
大會	-1101
落去	-1102
荷蘭	-1103
政策	-1104
路同	-1105
紀錄	-1106
百科	-1107
一共有	-1108
▁長	-1109
協會	-1110
同一	-1111
知識	-1112
單車	-1113
港鐵	-1114
符號	-1115
歡迎	-1116
風格	-1117
等嘅	-1118
學者	-1119
網上	-1120
屯門	-1121
係個	-1122
▁條路	-1123
產品	-1124
好多人	-1125
佢同	-1126
出名嘅	-1127
部門	-1128
來自	-1129
反應	-1130
芭蕾	-1131
通車	-1132
畀佢	-1133
元朗	-1134
▁除咗	-1135
▁下	-1136
▁全長	-1137
分別係	-1138
▁又	-1139
廣西	-1140
生意	-1141
身份	-1142
太平洋	-1143
▁噉	-1144
圖書館	-1145
▁至	-1146
係中國廣東省	-1147
大多數	-1148
改變	-1149
聽日	-1150
舞蹈	-1151
有得	-1152
33	-1153
啱啱	-1154
第一個	-1155
取消	-1156
引擎	-1157
資源	-1158
▁呢種	-1159
英文叫	-1160
2002	-1161
就要	-1162
埋一齊	-1163
▁2018	-1164
項目	-1165
▁石	-1166
漫畫	-1167
結婚	-1168
▁2015	-1169
結束	-1170
色嘅	-1171
目的	-1172
公開	-1173
擁有	-1174
聯邦	-1175
記憶	-1176
主要係	-1177
▁山	-1178
作家	-1179
天主教	-1180
嚴重	-1181
軍事	-1182
可以用	-1183
奧林	-1184
住宅	-1185
多個	-1186
專業	-1187
葡萄	-1188
雙向	-1189
四個	-1190
球員	-1191
增加	-1192
經營	-1193
佢就	-1194
基礎	-1195
紐西蘭	-1196
佛山	-1197
商場	-1198
開通	-1199
好少	-1200
網站	-1201
同其他	-1202
▁劉	-1203
平時	-1204
中環	-1205
免費	-1206
唔夠	-1207
都未	-1208
領域	-1209
2,	-1210
喺大	-1211
引起	-1212
經常	-1213
阿拉	-1214
▁195	-1215
高等	-1216
十幾	-1217
對於	-1218
決賽	-1219
用到	-1220
空間	-1221
一百	-1222
報告	-1223
屬嘅	-1224
順序	-1225
行政上	-1226
搞清楚	-1227
出入口	-1228
一個縣	-1229
南海	-1230
社區	-1231
邊從	-1232
選區	-1233
▁響	-1234
咩野	-1235
天河	-1236
番禺	-1237
足球聯賽	-1238
號喺	-1239
國會	-1240
過嚟	-1241
傳媒	-1242
1990	-1243
嘅一間	-1244
唐人	-1245
都得	-1246
我我	-1247
▁聖	-1248
故事	-1249
定嘅	-1250
三角	-1251
發表	-1252
精神	-1253
總站	-1254
製造	-1255
▁林	-1256
人地	-1257
逢禮拜	-1258
蘇聯	-1259
▁196	-1260
兩邊	-1261
分佈	-1262
重慶	-1263
證明	-1264
▁例如	-1265
基督教	-1266
又有	-1267
重係	-1268
類似	-1269
介紹	-1270
休息	-1271
文物	-1272
表現	-1273
轄區	-1274
博物	-1275
蒙古	-1276
道路	-1277
▁自	-1278
作用	-1279
年由	-1280
進入	-1281
▁安	-1282
達到	-1283
製作嘅	-1284
條件	-1285
有嘅	-1286
河南	-1287
非洲	-1288
年在位	-1289
1999	-1290
▁2010	-1291
㗎嘛	-1292
距離	-1293
2001	-1294
一隻	-1295
最早	-1296
統治	-1297
記者	-1298
▁咁你	-1299
而家嘅	-1300
十四	-1301
思想	-1302
改成	-1303
咗好多	-1304
意思係	-1305
東西	-1306
▁當時	-1307
係因為	-1308
投資	-1309
世界盃	-1310
同香港	-1311
速度	-1312
芭蕾舞	-1313
書記	-1314
總共	-1315
大戰	-1316
車身	-1317
馬來西亞	-1318
兩種	-1319
模特	-1320
球會	-1321
嘢食	-1322
將佢	-1323
當選	-1324
譬如	-1325
聽唔聽到	-1326
入面有	-1327
維基百科	-1328
好快	-1329
模型	-1330
係黃曆	-1331
▁2011	-1332
入去	-1333
人工	-1334
係中國廣東省廣州市	-1335
▁白	-1336
西洋	-1337
十年	-1338
原先	-1339
團體	-1340
嘅主要	-1341
司職前鋒	-1342
▁2013	-1343
安排	-1344
今晚	-1345
▁2007	-1346
改革	-1347
1997	-1348
兒童	-1349
利用	-1350
兩條	-1351
南部	-1352
就話	-1353
生命	-1354
課程	-1355
▁唔系	-1356
▁年	-1357
寫做	-1358
長嘅	-1359
黃埔	-1360
▁日	-1361
又唔	-1362
後尾	-1363
金曲	-1364
陣時	-1365
三年	-1366
爆發	-1367
▁12	-1368
▁呢間	-1369
▁有啲	-1370
▁古	-1371
法院	-1372
準備	-1373
又叫做	-1374
站係	-1375
都喺	-1376
公眾	-1377
係香港電視	-1378
福建	-1379
總理	-1380
國王	-1381
改咗	-1382
維持	-1383
試過	-1384
▁""	-1385
業務	-1386
▁2012	-1387
大橋	-1388
斯坦	-1389
朝早	-1390
汽車	-1391
係唔係	-1392
以上	-1393
逐漸	-1394
▁我話	-1395
華人	-1396
議院	-1397
周圍	-1398
政黨	-1399
隨住	-1400
,《	-1401
隔籬	-1402
動作	-1403
大樓	-1404
文字	-1405
綜合	-1406
▁2014	-1407
狀態	-1408
▁閏	-1409
房屋	-1410
其它	-1411
十九	-1412
關於	-1413
內地	-1414
閏年	-1415
未啊	-1416
樂隊	-1417
首次	-1418
▁廣州	-1419
國民黨	-1420
41	-1421
佛教	-1422
大清	-1423
▁王	-1424
建設	-1425
武漢	-1426
奧林匹	-1427
去啊	-1428
嘅特	-1429
發明	-1430
食飯	-1431
博物館	-1432
例子	-1433
嘅新	-1434
:),	-1435
▁2008	-1436
變化	-1437
行政區	-1438
▁2006	-1439
少少	-1440
小行星	-1441
動畫	-1442
▁後來	-1443
行政上歸	-1444
42	-1445
下面	-1446
出口	-1447
物質	-1448
觀塘	-1449
▁.。。	-1450
價值	-1451
北部	-1452
▁呢啲	-1453
有一個	-1454
▁做	-1455
嚟嘅	-1456
監製	-1457
宣傳	-1458
解釋	-1459
模特兒	-1460
▁羅	-1461
,)	-1462
站廳	-1463
現時	-1464
咗個	-1465
55	-1466
你講	-1467
屋苑	-1468
賽事	-1469
▁就	-1470
44	-1471
民間	-1472
候選	-1473
嘅海	-1474
加粗嘅	-1475
加粗嘅字係主幹道	-1476
月廿	-1477
體育館	-1478
可以喺	-1479
消防	-1480
▁一般	-1481
一個市	-1482
好嘅	-1483
係一部	-1484
土地	-1485
江蘇	-1486
移民	-1487
創立	-1488
第五	-1489
國嘅	-1490
我都	-1491
分做	-1492
國語	-1493
城區	-1494
長沙	-1495
劇集	-1496
山東	-1497
年同	-1498
▁16	-1499
年香港	-1500
▁2009	-1501
軟件	-1502
下晝	-1503
.8	-1504
南邊	-1505
連續	-1506
前身	-1507
數量	-1508
旗下	-1509
交易	-1510
就叫	-1511
表達	-1512
科學家	-1513
噉嘅	-1514
慢慢	-1515
游水	-1516
第二次	-1517
▁九	-1518
呢間	-1519
嘅香港	-1520
涉及	-1521
灣仔	-1522
▁同年	-1523
▁呢條	-1524
1980	-1525
可以指	-1526
奧林匹克	-1527
浙江	-1528
變咗	-1529
▁從	-1530
先生	-1531
後嚟	-1532
嘅國家	-1533
,197	-1534
▁」。。	-1535
估計	-1536
但系	-1537
關注	-1538
1998	-1539
噉樣	-1540
保留	-1541
主任	-1542
導致	-1543
就唔	-1544
年起	-1545
心理	-1546
臨時	-1547
佢有	-1548
容易	-1549
上次	-1550
智能	-1551
總督	-1552
成績	-1553
神經細胞	-1554
軍隊	-1555
清朝	-1556
嘅車站	-1557
海珠	-1558
港島	-1559
荔灣	-1560
▁龍	-1561
佢個	-1562
批評	-1563
改編	-1564
青年	-1565
出嚟嘅	-1566
用來	-1567
▁17	-1568
尤其係	-1569
必須	-1570
發佈	-1571
設施有	-1572
▁'	-1573
大部分	-1574
香港嘅	-1575
物種	-1576
年起好	-1577
級市	-1578
阿爸	-1579
伊斯	-1580
古代	-1581
奧運	-1582
選擇	-1583
開辦	-1584
▁此	-1585
號嘅	-1586
家族	-1587
老豆	-1588
程度	-1589
讀書	-1590
執行	-1591
▁二	-1592
住喺	-1593
合約	-1594
解決	-1595
離開	-1596
普通話	-1597
部隊	-1598
▁行政上歸	-1599
分類	-1600
咁嘅	-1601
▁15	-1602
天文	-1603
注意	-1604
民主黨	-1605
家庭	-1606
律賓	-1607
一個人	-1608
99	-1609
系咯	-1610
金融	-1611
菲律賓	-1612
▁去	-1613
土耳	-1614
教授	-1615
重喺	-1616
亦叫	-1617
會嘅	-1618
而喺	-1619
土耳其	-1620
嚟做	-1621
攻擊	-1622
西方	-1623
都幾	-1624
▁節目	-1625
43	-1626
基金	-1627
年年	-1628
貿易	-1629
58	-1630
少年	-1631
申請	-1632
餐廳	-1633
▁花	-1634
數嘅	-1635
日文	-1636
私人	-1637
世界上	-1638
內嘅	-1639
咗去	-1640
體嘅	-1641
有幾	-1642
紅色	-1643
59	-1644
係南	-1645
成嘅	-1646
紐約	-1647
通道	-1648
集中	-1649
▁五	-1650
太空	-1651
東邊	-1652
現場	-1653
青衣	-1654
▁設施有	-1655
▁巴	-1656
兄弟	-1657
公民	-1658
四川	-1659
▁2005	-1660
統計	-1661
尋日	-1662
病毒	-1663
起嘅	-1664
建議	-1665
考慮	-1666
記錄	-1667
金屬	-1668
冇乜	-1669
到嘅	-1670
長官	-1671
雲南	-1672
數值	-1673
輸入	-1674
地產	-1675
葡萄牙	-1676
▁兩	-1677
應用	-1678
香港政府	-1679
▁系啊系啊	-1680
目標	-1681
嘅情況	-1682
北邊	-1683
去咗	-1684
唔再	-1685
嘅其中一個	-1686
咋嘛	-1687
得啦	-1688
全名	-1689
討論	-1690
地區嘅	-1691
高速公路	-1692
工人	-1693
警察	-1694
▁2019	-1695
吸引	-1696
解放	-1697
收費區	-1698
史上	-1699
講法	-1700
幾乎	-1701
建築物	-1702
.6	-1703
未有	-1704
果日	-1705
階段	-1706
𡃉喎	-1707
呢個名	-1708
越秀區	-1709
足球會	-1710
明顯	-1711
▁咁啊	-1712
受歡迎	-1713
足球代表隊出場	-1714
傳說	-1715
本來	-1716
喺新界	-1717
得好	-1718
設立	-1719
亦可以	-1720
嘅女	-1721
畀你	-1722
改為	-1723
長期	-1724
平台	-1725
又譯	-1726
,18	-1727
其後	-1728
到去	-1729
對手	-1730
就算	-1731
海峽	-1732
醫療	-1733
候選人	-1734
▁華	-1735
一段	-1736
報紙	-1737
每日	-1738
呢次	-1739
材料	-1740
條例	-1741
客運	-1742
梗系	-1743
翡翠	-1744
190	-1745
另一個	-1746
本土	-1747
能量	-1748
西邊	-1749
十七	-1750
果只	-1751
稱呼	-1752
競選	-1753
係中國大陸	-1754
一定要	-1755
英格蘭	-1756
辦公	-1757
一直向	-1758
▁無	-1759
信號	-1760
入邊	-1761
接近	-1762
作曲	-1763
大家	-1764
將會	-1765
本地	-1766
氣候	-1767
訊號	-1768
一位	-1769
▁後嚟	-1770
加埋	-1771
少數	-1772
年前	-1773
▁亞	-1774
主張	-1775
恢復	-1776
咗之後	-1777
湖南衛視	-1778
市政	-1779
殖民	-1780
係噉	-1781
又話	-1782
廣泛	-1783
比亞	-1784
採用	-1785
伊斯蘭	-1786
嘅高	-1787
我就	-1788
年入	-1789
淘汰	-1790
▁文	-1791
包含	-1792
哲學	-1793
夏天	-1794
模式	-1795
1995	-1796
,_	-1797
冇啊	-1798
實行	-1799
普遍	-1800
最初	-1801
死亡	-1802
用途	-1803
地位	-1804
應嘅	-1805
政權	-1806
海軍	-1807
長江	-1808
年上	-1809
西貢	-1810
再次	-1811
線嘅	-1812
真係	-1813
.7	-1814
健康	-1815
重要嘅	-1816
▁四	-1817
旺角	-1818
老師	-1819
萬國	-1820
命名	-1821
西部	-1822
外國	-1823
搞掂	-1824
海外	-1825
記載	-1826
件事	-1827
共同	-1828
印尼	-1829
調整	-1830
雜誌	-1831
十二月	-1832
佢佢	-1833
做到	-1834
同大	-1835
特色	-1836
常見嘅	-1837
▁水	-1838
57	-1839
▁伊	-1840
上下	-1841
並喺	-1842
年尾	-1843
憲法	-1844
猶太	-1845
亦都係	-1846
號舉行	-1847
寫嘅	-1848
正常	-1849
山區	-1850
考試	-1851
98	-1852
古典	-1853
包括咗	-1854
力量	-1855
北面	-1856
站嘅	-1857
而係	-1858
國際機場	-1859
王國	-1860
話係	-1861
有兩個	-1862
屋邨	-1863
後生	-1864
將軍澳	-1865
▁波	-1866
東方	-1867
警方	-1868
飾演	-1869
56	-1870
即刻	-1871
多次	-1872
示威	-1873
▁最後	-1874
江西	-1875
2020	-1876
▁哎	-1877
斯特	-1878
辦法	-1879
500	-1880
▁聽到	-1881
公佈	-1882
教會	-1883
記得	-1884
一到	-1885
嘅事	-1886
點知	-1887
聯合國	-1888
▁成	-1889
康樂	-1890
手機	-1891
質量	-1892
嘅研究	-1893
工具	-1894
特徵	-1895
▁係囖	-1896
▁系嘛	-1897
▁2004	-1898
▁沙	-1899
突然	-1900
行嘅	-1901
可能會	-1902
▁以	-1903
平方米	-1904
方言	-1905
喺廣州	-1906
翡翠台	-1907
有兩	-1908
皇后	-1909
電車	-1910
引入	-1911
路嘅交界	-1912
68	-1913
漢字	-1914
比如	-1915
1996	-1916
原產	-1917
康熙	-1918
終年	-1919
重建	-1920
鐘意	-1921
」)	-1922
來嘅	-1923
展覽	-1924
月份	-1925
全世界	-1926
內部	-1927
又系	-1928
有三	-1929
首歌	-1930
,196	-1931
型嘅	-1932
尖沙	-1933
有咩	-1934
氧化	-1935
破壞	-1936
市長	-1937
中部	-1938
權力	-1939
緊要	-1940
背景	-1941
醫生	-1942
▁紅	-1943
嘅水	-1944
多啲	-1945
海洋	-1946
頒獎	-1947
大部份	-1948
奧林匹克運動會	-1949
上去	-1950
函數	-1951
貨幣	-1952
用嚟做	-1953
就冇	-1954
想去	-1955
樓係	-1956
㗎喔	-1957
咁咪	-1958
搬到	-1959
中國共產黨	-1960
▁卡	-1961
▁地	-1962
做法	-1963
文明	-1964
經已	-1965
高級	-1966
▁吳	-1967
條約	-1968
編號	-1969
分成	-1970
又係	-1971
嗰頭	-1972
天后	-1973
限制	-1974
香港島	-1975
等地	-1976
全長	-1977
經典	-1978
而家係	-1979
行政長官	-1980
個案	-1981
個鐘	-1982
勝利	-1983
女人	-1984
東面	-1985
五年	-1986
具有	-1987
發動	-1988
▁六	-1989
皇家	-1990
▁直到	-1991
星加坡	-1992
你地	-1993
出任	-1994
大阪	-1995
東部	-1996
一度	-1997
客家	-1998
空氣	-1999
▁平	-2000
南面	-2001
▁明	-2002
嘅同	-2003
▁呢次	-2004
分子	-2005
唐字	-2006
海拔	-2007
漢語	-2008
星期六	-2009
確定	-2010
符合	-2011
▁11	-2012
▁好似	-2013
今日嘅	-2014
化嘅	-2015
國內	-2016
市嘅	-2017
耶穌	-2018
高嘅	-2019
▁14	-2020
任務	-2021
行車	-2022
首播	-2023
點半	-2024
1994	-2025
不斷	-2026
工廠	-2027
深水	-2028
視覺	-2029
▁哦哦	-2030
而家喺	-2031
和平	-2032
唔得	-2033
失敗	-2034
有成	-2035
用戶	-2036
蝴蝶	-2037
路口	-2038
打電話	-2039
▁加	-2040
森林	-2041
係香港無綫電視	-2042
係中華人民共和國	-2043
持續	-2044
肯定	-2045
賽馬	-2046
運作	-2047
複雜	-2048
足協	-2049
支援	-2050
整嘅	-2051
荔枝	-2052
重可以	-2053
廣州地鐵	-2054
▁周	-2055
假設	-2056
同樣	-2057
唔單	-2058
四年	-2059
係中國廣東廣州嘅	-2060
佢啲	-2061
綠色	-2062
點鐘	-2063
東南亞	-2064
每年嘅	-2065
.0	-2066
▁楊	-2067
層樓	-2068
頭角	-2069
又或者	-2070
3,	-2071
▁正	-2072
參賽	-2073
形容	-2074
者嘅	-2075
遊行	-2076
▁呢度	-2077
事務局	-2078
好難	-2079
會員	-2080
);	-2081
▁都	-2082
南方	-2083
年佢	-2084
晚黑	-2085
翻譯	-2086
飛行	-2087
舞蹈員	-2088
描述	-2089
現任	-2090
西哥	-2091
設備	-2092
(18	-2093
1970	-2094
幫手	-2095
重點	-2096
批准	-2097
即係話	-2098
95	-2099
外交	-2100
好耐	-2101
後嘅	-2102
計算	-2103
喺九龍	-2104
佔領	-2105
後期	-2106
落成	-2107
人喺	-2108
分開	-2109
排名	-2110
湖北	-2111
資格	-2112
類嘅	-2113
▁同時	-2114
經濟學	-2115
世界大戰	-2116
指出	-2117
網球	-2118
董事	-2119
1993	-2120
67	-2121
十字	-2122
▁13	-2123
人口有	-2124
系啊系啊	-2125
核心	-2126
獅子	-2127
落嚟	-2128
返到	-2129
市鎮	-2130
當局	-2131
墨西哥	-2132
人民政府	-2133
模擬	-2134
生態	-2135
%。。	-2136
主權	-2137
宣布	-2138
年底	-2139
博士	-2140
承認	-2141
西面	-2142
以外	-2143
五十	-2144
女演員	-2145
荔灣區	-2146
咁大	-2147
挑戰	-2148
相信	-2149
參加過	-2150
四大	-2151
文章	-2152
機關	-2153
▁清	-2154
基地	-2155
旅行	-2156
百幾	-2157
保持	-2158
基於	-2159
教堂	-2160
嘅問題	-2161
▁要	-2162
兩次	-2163
加盟	-2164
官員	-2165
快速	-2166
我講	-2167
公元前	-2168
一陣	-2169
主辦	-2170
填海	-2171
感染	-2172
維多	-2173
嗰時嘅	-2174
▁本	-2175
珠海	-2176
算法	-2177
阿拉伯	-2178
年號	-2179
景區	-2180
臺北	-2181
特別行政區	-2182
▁用	-2183
有效	-2184
樂壇	-2185
穩定	-2186
細佬	-2187
過嘅	-2188
▁一個	-2189
寫成	-2190
直至	-2191
著名	-2192
係香港一	-2193
來講	-2194
測試	-2195
競爭	-2196
經理	-2197
都市	-2198
前後	-2199
嶼山	-2200
幾日	-2201
幾耐	-2202
性質	-2203
收到	-2204
空中	-2205
話佢	-2206
領袖	-2207
拍攝	-2208
特殊	-2209
300	-2210
守門	-2211
犀利	-2212
▁一九	-2213
▁此外	-2214
97	-2215
▁梁	-2216
▁蘇	-2217
個女	-2218
因素	-2219
天氣	-2220
數碼	-2221
爭議	-2222
經歷	-2223
貝爾	-2224
上市	-2225
係以	-2226
按照	-2227
的士	-2228
直徑	-2229
第啲	-2230
部長	-2231
顏色	-2232
▁家下	-2233
▁為咗	-2234
喺美國	-2235
▁條路從	-2236
交流	-2237
唔畀	-2238
投入	-2239
新城	-2240
減少	-2241
首先	-2242
例如係	-2243
,2016	-2244
▁打	-2245
▁米	-2246
力嘅	-2247
天然	-2248
就好	-2249
生存	-2250
白色	-2251
規則	-2252
▁主演	-2253
保羅	-2254
富豪	-2255
年初	-2256
火車	-2257
嘅第一	-2258
守門員	-2259
政治人	-2260
爲日本	-2261
1991	-2262
上帝	-2263
有線	-2264
▁八	-2265
亦會	-2266
嘅山	-2267
年後	-2268
軌道	-2269
▁=	-2270
▁據	-2271
作者	-2272
北方	-2273
宇宙	-2274
畀我	-2275
▁颱風	-2276
65	-2277
▁開	-2278
你去	-2279
國務	-2280
圓形	-2281
至少	-2282
蛋白	-2283
萬國碼	-2284
.3	-2285
教練	-2286
行人	-2287
上有	-2288
全面	-2289
君主	-2290
對方	-2291
甲組	-2292
鄉下	-2293
▁系咯	-2294
台北	-2295
效果	-2296
教學	-2297
王朝	-2298
瑞士	-2299
遊客	-2300
主持人	-2301
亦都有	-2302
一九	-2303
今次	-2304
大堂	-2305
恆星	-2306
拉斯	-2307
歌唱	-2308
男人	-2309
重未	-2310
一步	-2311
做嘢	-2312
提名	-2313
時段	-2314
興趣	-2315
註冊	-2316
英文名	-2317
攞過	-2318
發音	-2319
華南	-2320
▁第一	-2321
唔系啊	-2322
年加入	-2323
東路	-2324
民眾	-2325
競演	-2326
語系	-2327
令佢	-2328
出席	-2329
哦哦	-2330
播放	-2331
暫時	-2332
]]	-2333
氣旋	-2334
無論	-2335
緊嘅	-2336
表面	-2337
語文	-2338
道同	-2339
唔知啊	-2340
維多利亞	-2341
高等學校	-2342
一共	-2343
上班	-2344
反映	-2345
瑞典	-2346
▁跟住	-2347
到而家	-2348
喺北京	-2349
▁人	-2350
▁寶	-2351
丹尼	-2352
夾埋	-2353
女性	-2354
對外	-2355
理由	-2356
號正式	-2357
88	-2358
▁咪	-2359
一班	-2360
年開	-2361
生嘅	-2362
聽唔到	-2363
國立	-2364
聲母	-2365
議席	-2366
運算	-2367
[[	-2368
反正	-2369
壓力	-2370
學位	-2371
山大	-2372
意見	-2373
直播	-2374
退役	-2375
足球場	-2376
總統選舉	-2377
祖籍	-2378
進化	-2379
配合	-2380
首相	-2381
咗佢	-2382
夏季	-2383
恐怖	-2384
羽毛	-2385
1989	-2386
一世	-2387
其餘	-2388
套劇	-2389
▁第二	-2390
年之間	-2391
係同	-2392
巴黎	-2393
法定	-2394
有唔少	-2395
演算法	-2396
刺激	-2397
原來	-2398
提升	-2399
經驗	-2400
講嘅	-2401
門口	-2402
食物	-2403
附近嘅	-2404
77	-2405
」;	-2406
大致	-2407
局長	-2408
結合	-2409
係臺灣	-2410
香港公園	-2411
▁/	-2412
事業	-2413
維亞	-2414
"")	-2415
▁2000	-2416
係香港九龍	-2417
53	-2418
▁廣	-2419
出自	-2420
地名	-2421
山頂	-2422
戲劇	-2423
現實	-2424
相同	-2425
細嘅	-2426
▁係咩	-2427
由香港	-2428
▁七	-2429
又嗌	-2430
改做	-2431
道嘅	-2432
▁目前	-2433
之後就	-2434
4,	-2435
士尼	-2436
紅磡	-2437
▁係啊	-2438
當時嘅	-2439
相當於	-2440
係唔係啊	-2441
係香港一間	-2442
去邊度	-2443
亦喺	-2444
第六	-2445
而成	-2446
認知	-2447
▁》	-2448
▁朱	-2449
佢又	-2450
傳播	-2451
十大	-2452
委會	-2453
相反	-2454
鯨魚	-2455
▁太	-2456
▁近	-2457
以為	-2458
地面	-2459
基本上	-2460
迪士尼	-2461
%,	-2462
▁葉	-2463
五個	-2464
作出	-2465
嘅中	-2466
通常係	-2467
▁主演係	-2468
▁未	-2469
基因	-2470
定律	-2471
拍過	-2472
精靈	-2473
聖經	-2474
農業	-2475
信息	-2476
循環	-2477
聲音	-2478
臺南	-2479
克蘭	-2480
典禮	-2481
協助	-2482
英雄	-2483
...	-2484
公司嘅	-2485
▁奧	-2486
小巴	-2487
上落	-2488
以後	-2489
各個	-2490
唔識	-2491
延長	-2492
比例	-2493
百萬	-2494
終於	-2495
▁2003	-2496
事實	-2497
以來	-2498
愛情	-2499
東亞	-2500
產業	-2501
登記	-2502
高度	-2503
▁日本	-2504
十分鐘	-2505
香港公園之一	-2506
89	-2507
佔地	-2508
同你	-2509
夫人	-2510
訪問	-2511
2。。	-2512
深水埗	-2513
儀式	-2514
啲嘅	-2515
意外	-2516
邀請	-2517
▁你你	-2518
▁果	-2519
個樣	-2520
往返	-2521
更多	-2522
1988	-2523
54	-2524
▁對	-2525
以嚟	-2526
作業	-2527
哥華	-2528
大賽	-2529
海珠區	-2530
熱帶氣旋	-2531
69	-2532
八月	-2533
懷疑	-2534
邊有	-2535
號啟用	-2536
交通事務局	-2537
▁0	-2538
收購	-2539
消費	-2540
肺炎	-2541
▁美國	-2542
廣播有限公司	-2543
一級	-2544
又要	-2545
教宗	-2546
細個	-2547
隨後	-2548
仲要	-2549
圍住	-2550
好好	-2551
最好	-2552
東莞	-2553
等人	-2554
退出	-2555
亞洲電視	-2556
遊樂場之一	-2557
三國	-2558
排第	-2559
通訊	-2560
▁結果	-2561
總共有	-2562
來往	-2563
指揮	-2564
又可以	-2565
▁鄭	-2566
場地	-2567
文件	-2568
歐盟	-2569
銅鑼	-2570
▁2002	-2571
去左	-2572
喺南	-2573
▁系咪	-2574
大馬路	-2575
溫哥華	-2576
醫學	-2577
....	-2578
,2017	-2579
75	-2580
:'	-2581
北海	-2582
咖啡	-2583
聯網	-2584
電子遊戲	-2585
三十	-2586
冇得	-2587
大街	-2588
家陣	-2589
籃球場	-2590
同學	-2591
埃及	-2592
▁因爲	-2593
▁如	-2594
你啊	-2595
校長	-2596
發出	-2597
福利	-2598
葵涌	-2599
低嘅	-2600
價錢	-2601
形狀	-2602
若果	-2603
殖民地	-2604
和諧	-2605
互相	-2606
佢啊	-2607
客車	-2608
座樓	-2609
武器	-2610
豐富	-2611
中午	-2612
人數	-2613
嘅原	-2614
意義	-2615
法蘭	-2616
象徵	-2617
▁其實	-2618
同一個	-2619
唔單止	-2620
嘅影響	-2621
公會	-2622
哺乳	-2623
大獎	-2624
室內	-2625
我哋	-2626
特區	-2627
粒子	-2628
頂級	-2629
嘅主	-2630
地利	-2631
泳池	-2632
海岸	-2633
退休	-2634
女歌手	-2635
二年	-2636
係從	-2637
兩日	-2638
幾年	-2639
相似	-2640
觀察	-2641
而出名	-2642
小姐競選	-2643
二世	-2644
係第	-2645
天橋	-2646
律師	-2647
1992	-2648
實施	-2649
斯卡	-2650
村民	-2651
玩啊	-2652
78	-2653
▁原	-2654
喺個	-2655
放棄	-2656
江南	-2657
習慣	-2658
一座城	-2659
巴士線	-2660
所謂嘅	-2661
勢力	-2662
另一方面	-2663
▁哈	-2664
名單	-2665
收入	-2666
中國嘅	-2667
已經有	-2668
1960	-2669
.9	-2670
▁利	-2671
多人	-2672
好有	-2673
安徽	-2674
粵劇	-2675
▁:	-2676
▁唐	-2677
學術	-2678
寵物	-2679
港產	-2680
約翰	-2681
總會	-2682
英倫	-2683
號至	-2684
香港人	-2685
63	-2686
冚唪	-2687
固定	-2688
就將	-2689
原本係	-2690
▁每	-2691
地底	-2692
幾好	-2693
後面	-2694
整咗	-2695
橫濱	-2696
畫嘅	-2697
+。。	-2698
64	-2699
凈係	-2700
太子	-2701
日軍	-2702
決策	-2703
冚唪唥	-2704
嘅方法	-2705
白雲區	-2706
系咪啊	-2707
專家	-2708
收錄	-2709
可以做	-2710
屆香港	-2711
新加坡	-2712
管理局	-2713
東西走向	-2714
▁光	-2715
毫米	-2716
治療	-2717
需求	-2718
銅鑼灣	-2719
社會主義	-2720
號逢禮拜	-2721
61	-2722
79	-2723
公主	-2724
州嘅	-2725
識得	-2726
財政	-2727
買左	-2728
嘅過程	-2729
物理學	-2730
.2	-2731
嗰日	-2732
定係	-2733
舞台	-2734
色列	-2735
郊野	-2736
年入伙	-2737
廿一	-2738
接收	-2739
搞咗	-2740
溫度	-2741
▁何	-2742
來源	-2743
分裂	-2744
大臣	-2745
水平	-2746
當年	-2747
者有	-2748
伊朗	-2749
真正	-2750
年出道	-2751
一直去到	-2752
51	-2753
過咗	-2754
▁以下	-2755
主題曲	-2756
年去到	-2757
六年	-2758
哩就	-2759
嘗試	-2760
意識	-2761
族群	-2762
演藝	-2763
百分	-2764
歷山大	-2765
係香港新界	-2766
叫佢	-2767
尋晚	-2768
指定	-2769
港澳	-2770
講啊	-2771
你而家	-2772
係一間	-2773
第二個	-2774
而唔係	-2775
蘇格蘭	-2776
厘米	-2777
喺佢	-2778
嘉賓	-2779
形象	-2780
推動	-2781
獎項	-2782
▁20	-2783
天河區	-2784
......	-2785
爲日本足球代表隊出場	-2786
▁德	-2787
你話	-2788
呢排	-2789
地理	-2790
字嘅	-2791
山西	-2792
程序	-2793
飲食	-2794
1985	-2795
▁萬	-2796
依然	-2797
所在	-2798
流動	-2799
消息	-2800
秘書	-2801
衝突	-2802
西路	-2803
▁而喺	-2804
:30-	-2805
冬天	-2806
得嘅	-2807
青山	-2808
創造	-2809
咁我	-2810
地震	-2811
威爾	-2812
慈善	-2813
晏晝	-2814
火車站	-2815
訓練班	-2816
係佢	-2817
從化	-2818
用喺	-2819
見過	-2820
辦公室	-2821
,2012	-2822
以爲	-2823
供應	-2824
接觸	-2825
波斯	-2826
發達	-2827
轉車	-2828
▁英國	-2829
民主派	-2830
一個市轄區	-2831
就咁	-2832
提高	-2833
說明	-2834
政府嘅	-2835
▁哇	-2836
▁木	-2837
博弈	-2838
司馬	-2839
推廣	-2840
會將	-2841
粉嶺	-2842
風暴	-2843
共和曆	-2844
出現咗	-2845
女主角	-2846
係西班牙	-2847
▁睇	-2848
冇人	-2849
垃圾	-2850
山脈	-2851
贏出	-2852
通知	-2853
▁布	-2854
呢就	-2855
報導	-2856
東區	-2857
被人	-2858
變數	-2859
野啊	-2860
52	-2861
▁食	-2862
交匯	-2863
假名	-2864
宿舍	-2865
改善	-2866
河北	-2867
號開	-2868
贏咗	-2869
返屋企	-2870
係要	-2871
危險	-2872
哈爾	-2873
時嘅	-2874
玻璃	-2875
式月台	-2876
獎最佳	-2877
俗稱	-2878
保險	-2879
嗯嗯	-2880
我是	-2881
活躍	-2882
無耐	-2883
走去	-2884
附屬	-2885
▁通常	-2886
國務院	-2887
嘅其中一	-2888
人都	-2889
差異	-2890
物體	-2891
網民	-2892
係法國共和曆	-2893
加強	-2894
唔想	-2895
嘢嘅	-2896
樓梯	-2897
適應	-2898
(19	-2899
係一位	-2900
屬下嘅	-2901
上升	-2902
密度	-2903
未來	-2904
400	-2905
嘅三	-2906
執政	-2907
石油	-2908
聖誕	-2909
遺產	-2910
阿爾	-2911
實際上	-2912
如下	-2913
▁唔知	-2914
之後嘅	-2915
做嘅	-2916
大仙	-2917
日常	-2918
角度	-2919
量度	-2920
嘅時間	-2921
曾經係	-2922
▁條	-2923
人大	-2924
停車	-2925
加州	-2926
套戲	-2927
最先	-2928
可能係	-2929
喺屋企	-2930
港產片	-2931
元年	-2932
前面	-2933
品牌	-2934
平原	-2935
引發	-2936
成份	-2937
無人	-2938
太陽系	-2939
一條馬路	-2940
▁松	-2941
檢查	-2942
簽約	-2943
裏頭	-2944
▁吉	-2945
九年	-2946
唔去	-2947
會同	-2948
繼承	-2949
▁同埋	-2950
.4	-2951
1986	-2952
,2010	-2953
同南	-2954
時裝	-2955
火山	-2956
選民	-2957
1987	-2958
66	-2959
十月	-2960
德文	-2961
海南	-2962
蘋果	-2963
家下係	-2964
係香港電視廣播有限公司	-2965
係將	-2966
年第	-2967
1984	-2968
年之間嗰	-2969
喜劇	-2970
廁所	-2971
龍江	-2972
▁嗰時	-2973
嘅地區	-2974
係法國共和曆入面	-2975
中原	-2976
中古	-2977
嘅外	-2978
成本	-2979
日報	-2980
繁殖	-2981
▁世紀	-2982
▁冇啊	-2983
▁有冇	-2984
▁澳門	-2985
丹尼士	-2986
嘅關係	-2987
每年嘅第	-2988
航空公司	-2989
郊野公園	-2990
司職守門員	-2991
係法國共和曆入面每年嘅第	-2992
"、	-2993
:,	-2994
之內	-2995
分支	-2996
印刷	-2997
幾次	-2998
衛生	-2999
進一步	-3000
運動員	-3001
都會響	-3002
客流	-3003
滿洲	-3004
物件	-3005
興建	-3006
開心	-3007
領土	-3008
然而	-3009
最後一	-3010
凌晨	-3011
參考	-3012
單曲	-3013
股份	-3014
解散	-3015
▁九龍	-3016
公共屋邨	-3017
無綫電視藝員	-3018
第二次世界大戰	-3019
▁牛	-3020
兩年	-3021
合唱	-3022
名係	-3023
呢隻	-3024
慶祝	-3025
海灣	-3026
預測	-3027
▁廣東	-3028
年代係指	-3029
▁初	-3030
▁間	-3031
嚟到	-3032
學士	-3033
得出	-3034
植株	-3035
農曆	-3036
係廣州	-3037
自治區	-3038
▁永	-3039
又冇	-3040
姓氏	-3041
相比	-3042
主要嘅	-3043
市中心	-3044
代表大會	-3045
南北走向	-3046
▁美	-3047
司機	-3048
祠堂	-3049
▁佢話	-3050
成為咗	-3051
▁多	-3052
代碼	-3053
針對	-3054
長度	-3055
我而家	-3056
▁公	-3057
一代	-3058
詩人	-3059
嘅意思	-3060
大嶼山	-3061
區係中國	-3062
▁2001	-3063
但喺	-3064
做緊	-3065
各自	-3066
噉解	-3067
男女	-3068
黑色	-3069
世紀初	-3070
副主席	-3071
好似係	-3072
月開始	-3073
咗畀	-3074
嘅電	-3075
本書	-3076
根本	-3077
系咁	-3078
金像	-3079
陝西	-3080
之後喺	-3081
呢兩個	-3082
年年有	-3083
85	-3084
內閣	-3085
合物	-3086
幹線	-3087
星座	-3088
運用	-3089
離年尾	-3090
係俄羅斯	-3091
離年尾重有	-3092
76	-3093
一大	-3094
協議	-3095
又稱	-3096
羊城	-3097
係德國	-3098
係羅馬	-3099
,2008	-3100
▁土	-3101
人係	-3102
信仰	-3103
健身	-3104
咁就	-3105
集會	-3106
出身	-3107
境內	-3108
戰鬥	-3109
氣象	-3110
裏邊	-3111
視為	-3112
貢獻	-3113
黃埔區	-3114
▁1990	-3115
72	-3116
嘅有	-3117
委任	-3118
小時	-3119
想像	-3120
水塘	-3121
男子	-3122
緬甸	-3123
舞步	-3124
都話	-3125
多數係	-3126
▁等	-3127
《》	-3128
個個	-3129
時閏	-3130
波蘭	-3131
風景	-3132
黃金	-3133
第一間	-3134
▁因為閏	-3135
平時紀念	-3136
閏年時閏	-3137
唔係年年有	-3138
係黃曆閏年時閏	-3139
平時紀念都會響	-3140
一市	-3141
係北	-3142
咁耐	-3143
喬木	-3144
增長	-3145
毛澤	-3146
部首	-3147
銷量	-3148
類型	-3149
烏克蘭	-3150
男演員	-3151
係中華民國	-3152
常綠	-3153
式嘅	-3154
米高	-3155
自殺	-3156
評論	-3157
▁至於	-3158
--	-3159
▁之	-3160
樣嘢	-3161
水庫	-3162
濕地	-3163
繁忙	-3164
起碼	-3165
▁可以	-3166
.1	-3167
▁講	-3168
一覽	-3169
代理	-3170
助理	-3171
寫字	-3172
對面	-3173
感覺	-3174
明朝	-3175
港元	-3176
物業	-3177
話嘅	-3178
▁因此	-3179
嘅發展	-3180
基斯坦	-3181
年美國	-3182
代替	-3183
對象	-3184
有好	-3185
第七	-3186
路段	-3187
邏輯	-3188
我覺得	-3189
位素	-3190
名叫	-3191
終點	-3192
設置	-3193
起源	-3194
隔離	-3195
喺日本	-3196
毛澤東	-3197
組成嘅	-3198
,2009	-3199
▁田	-3200
▁老	-3201
八年	-3202
古蹟	-3203
女仔	-3204
整成	-3205
▁今日	-3206
▁愛	-3207
▁江	-3208
司法	-3209
微博	-3210
旅客	-3211
起義	-3212
嘅歷史	-3213
最出名	-3214
▁1999	-3215
▁重	-3216
上網	-3217
反而	-3218
同地區	-3219
果陣時	-3220
人口約莫	-3221
▁福	-3222
七年	-3223
以南	-3224
係前	-3225
傾向	-3226
加拉	-3227
即使	-3228
天津	-3229
證實	-3230
馬拉	-3231
兩位	-3232
千幾	-3233
左啦	-3234
最近	-3235
歲嘅	-3236
轉乘	-3237
連任	-3238
高中	-3239
及文化	-3240
》、	-3241
並唔	-3242
仔女	-3243
係咪	-3244
嗰年	-3245
德華	-3246
打算	-3247
生涯	-3248
當日	-3249
轄下	-3250
事務署	-3251
咗一個	-3252
星期日	-3253
▁唔系啊	-3254
中共中央	-3255
標誌	-3256
犯罪	-3257
禁止	-3258
等於	-3259
或者叫	-3260
1982	-3261
商人	-3262
策略	-3263
認爲	-3264
遇到	-3265
年夏季	-3266
1950	-3267
巴士公司	-3268
,2013	-3269
87	-3270
作爲	-3271
唔理	-3272
因而	-3273
拉克	-3274
搬去	-3275
柴灣	-3276
辦事	-3277
▁主要	-3278
▁好多	-3279
古希臘	-3280
,2014	-3281
84	-3282
一點	-3283
召開	-3284
多種	-3285
強調	-3286
爵士	-3287
病人	-3288
皆因	-3289
自助	-3290
買嘢	-3291
辛苦	-3292
雙方	-3293
澳門通	-3294
足球隊	-3295
62	-3296
呢段	-3297
真人	-3298
移動	-3299
縮寫	-3300
」),	-3301
為香港	-3302
我是歌手	-3303
▁1997	-3304
啊佢	-3305
專用	-3306
東涌	-3307
樂團	-3308
民黨	-3309
有關嘅	-3310
▁1980	-3311
加價	-3312
外界	-3313
學友	-3314
年創	-3315
日後	-3316
緊急	-3317
街市	-3318
讀音	-3319
麻雀	-3320
尖沙咀	-3321
,2015	-3322
▁或	-3323
保安	-3324
拉丁文	-3325
諾貝爾	-3326
一號	-3327
到東	-3328
輸出	-3329
電梯	-3330
解放軍	-3331
伊斯蘭教	-3332
▁麥	-3333
▁黑	-3334
不可	-3335
令人	-3336
以北	-3337
出面	-3338
預計	-3339
▁有時	-3340
十一月	-3341
世界各地	-3342
▁英	-3343
上晝	-3344
住嘅	-3345
南韓	-3346
地圖	-3347
少女	-3348
法例	-3349
淡水	-3350
版權	-3351
畀錢	-3352
細聲	-3353
編劇	-3354
錄音	-3355
陸續	-3356
順德	-3357
頭嘅	-3358
叫佢做	-3359
年期間	-3360
▁今	-3361
北區	-3362
地嘅	-3363
日日	-3364
牌子	-3365
裝飾	-3366
▁公園	-3367
節目主持	-3368
主打	-3369
曹操	-3370
踢館	-3371
開花	-3372
上面嘅	-3373
就開始	-3374
成日都	-3375
▁除	-3376
同性	-3377
大眾	-3378
始終	-3379
爾文	-3380
留低	-3381
粵拼	-3382
食品	-3383
以色列	-3384
,2006	-3385
▁佐	-3386
一場	-3387
但佢	-3388
保守	-3389
只要	-3390
操作	-3391
畀乘客	-3392
1983	-3393
公頃	-3394
啲野	-3395
坦克	-3396
威脅	-3397
季嘅	-3398
改用	-3399
新會	-3400
比利	-3401
語族	-3402
豬籠	-3403
鞍山	-3404
▁其他	-3405
一部份	-3406
區議會選舉	-3407
同我	-3408
嘅國	-3409
拒絕	-3410
發起	-3411
避免	-3412
150	-3413
嘅方式	-3414
▁1998	-3415
得票	-3416
抗日	-3417
搞嘅	-3418
果時	-3419
父母	-3420
環保	-3421
至今	-3422
互聯網	-3423
嘅一粒	-3424
星期五	-3425
路開始	-3426
▁佢亦係	-3427
▁·	-3428
▁漢	-3429
列入	-3430
多咗	-3431
大區	-3432
大選	-3433
好啲	-3434
小組	-3435
建造	-3436
拆咗	-3437
氹仔	-3438
流傳	-3439
爆炸	-3440
變得	-3441
返工	-3442
選手	-3443
▁即係	-3444
唔系好	-3445
,1	-3446
㗎咩	-3447
入侵	-3448
即時	-3449
話要	-3450
遭到	-3451
面對	-3452
新市鎮	-3453
有超過	-3454
係最	-3455
保存	-3456
入便	-3457
去去	-3458
台山	-3459
嘅車	-3460
實現	-3461
展開	-3462
年被	-3463
本嚟	-3464
樂園	-3465
老人	-3466
基金會	-3467
1979	-3468
▁電	-3469
京都	-3470
架生	-3471
發電	-3472
碩士	-3473
雙層	-3474
音嘅	-3475
▁咩啊	-3476
情況下	-3477
係香港電視娛樂	-3478
▁咩	-3479
利益	-3480
最低	-3481
氣體	-3482
污染	-3483
成立咗	-3484
黃大仙	-3485
,2018	-3486
康樂及文化	-3487
康樂及文化事務署	-3488
86	-3489
▁孫	-3490
▁青	-3491
受試	-3492
地點	-3493
發射	-3494
管轄	-3495
點幾	-3496
一千	-3497
亞軍	-3498
其屋	-3499
昆蟲	-3500
環球	-3501
顧問	-3502
十年代	-3503
同中國	-3504
張專輯	-3505
74	-3506
了解	-3507
原則	-3508
展示	-3509
校區	-3510
西區	-3511
順利	-3512
呢個詞	-3513
國家嘅	-3514
所以叫	-3515
公共圖書館	-3516
修改	-3517
利蘭	-3518
哥倫	-3519
天下	-3520
得返	-3521
構成	-3522
神戶	-3523
草本	-3524
號線	-3525
一個月	-3526
黑龍江	-3527
亞歷山大	-3528
乒乓	-3529
個體	-3530
同意	-3531
啟德	-3532
回應	-3533
多過	-3534
幾何	-3535
幾遠	-3536
往往	-3537
積極	-3538
質疑	-3539
佢自己	-3540
果啲啊	-3541
1981	-3542
加粗咗嘅	-3543
武漢肺炎	-3544
歷史建築	-3545
▁啲	-3546
勞動	-3547
早喺	-3548
水圍	-3549
黨員	-3550
▁當中	-3551
系唔系	-3552
哺乳動物	-3553
頒獎典禮	-3554
優惠	-3555
出發	-3556
向南	-3557
形態	-3558
消失	-3559
黃色	-3560
▁重有	-3561
1000	-3562
96	-3563
喺播	-3564
就用	-3565
從而	-3566
成爲	-3567
春秋	-3568
柏林	-3569
▁以前	-3570
兩個人	-3571
▁史	-3572
啊咁	-3573
明星	-3574
芳村	-3575
貴州	-3576
▁植株	-3577
,2011	-3578
甲組足球聯賽	-3579
受傷	-3580
定理	-3581
家姐	-3582
影片	-3583
潮州	-3584
英語	-3585
選出	-3586
黨嘅	-3587
居者有	-3588
廣鐵路	-3589
▁廣州市	-3590
居者有其屋	-3591
去做	-3592
圖像	-3593
天鵝	-3594
帶有	-3595
德里	-3596
扶手	-3597
整數	-3598
生喺	-3599
重大	-3600
陸軍	-3601
頭先	-3602
係廣東	-3603
運動場	-3604
中文大學	-3605
喺香港島	-3606
聽唔聽到啊	-3607
▁出	-3608
小食	-3609
標記	-3610
行業	-3611
▁或者	-3612
前身係	-3613
嘅工作	-3614
豬籠草	-3615
九月	-3616
修訂	-3617
流入	-3618
結他	-3619
衞星	-3620
年之後	-3621
歷史上	-3622
畢業後	-3623
()	-3624
▁嘉	-3625
一部	-3626
住咗	-3627
兩隻	-3628
半球	-3629
口岸	-3630
同盟	-3631
我又	-3632
投降	-3633
有錢	-3634
金鐘	-3635
"、"	-3636
▁190	-3637
一邊	-3638
挪威	-3639
男性	-3640
進步	-3641
1。。	-3642
▁後尾	-3643
大規模	-3644
奧地利	-3645
年推出	-3646
認為係	-3647
▁元	-3648
喺西	-3649
對應	-3650
爭取	-3651
理想	-3652
知名	-3653
都無	-3654
鳳凰	-3655
嘅電影	-3656
研究者	-3657
都唔知	-3658
92	-3659
一套	-3660
下轄	-3661
公投	-3662
區同	-3663
喺北	-3664
度嘅	-3665
截至	-3666
混合	-3667
▁於是	-3668
▁曾	-3669
三大	-3670
區分	-3671
寫咗	-3672
微軟	-3673
比喻	-3674
留意	-3675
觀光	-3676
啊而家	-3677
嘅重要	-3678
73	-3679
▁亦	-3680
二百	-3681
同名	-3682
嚟越	-3683
塞爾	-3684
大佬	-3685
年就	-3686
用過	-3687
講到	-3688
停車場	-3689
所以有	-3690
越嚟越	-3691
:"")	-3692
年夏季奧林匹克運動會	-3693
全日	-3694
各國	-3695
同北	-3696
呢邊	-3697
客機	-3698
有條	-3699
界別	-3700
祖先	-3701
著作	-3702
號同	-3703
觀音	-3704
諮詢	-3705
▁鄧	-3706
你好	-3707
你要	-3708
強烈	-3709
復興	-3710
抗議	-3711
猛咁	-3712
購物	-3713
配音	-3714
鐵綫	-3715
飲茶	-3716
▁哦咁	-3717
嘅機會	-3718
嘅一條馬路	-3719
83	-3720
▁為	-3721
入口	-3722
冷氣	-3723
千米	-3724
城門	-3725
大城	-3726
推行	-3727
數目	-3728
清水	-3729
演變	-3730
一直到	-3731
嘅音樂	-3732
政治局	-3733
第二日	-3734
系統嘅	-3735
屬下	-3736
會係	-3737
藝名	-3738
嘅經濟	-3739
地級市	-3740
假期	-3741
光緒	-3742
指數	-3743
私立	-3744
街同	-3745
銷售	-3746
北海道	-3747
縣一市	-3748
都係由	-3749
,2007	-3750
戰國	-3751
獨特	-3752
集合	-3753
▁而且	-3754
係巴西	-3755
或者係	-3756
▁幾	-3757
上水	-3758
出過	-3759
呢類	-3760
啦你	-3761
四月	-3762
巡迴	-3763
戰後	-3764
排嘅	-3765
月底	-3766
滿足	-3767
王子	-3768
聲明	-3769
銀紙	-3770
錦標	-3771
交易所	-3772
就好似	-3773
語言嘅	-3774
停止	-3775
南到	-3776
危機	-3777
大細	-3778
建制	-3779
權利	-3780
港口	-3781
高峰	-3782
▁嗯嗯	-3783
▁我地	-3784
先可以	-3785
嘅角色	-3786
寫字樓	-3787
,6	-3788
▁艾	-3789
任期	-3790
兩間	-3791
同新	-3792
啦我	-3793
嘅總	-3794
根廷	-3795
環節	-3796
街坊	-3797
講話	-3798
近年	-3799
▁大清	-3800
條馬路	-3801
巴基斯坦	-3802
94	-3803
回歸	-3804
大明	-3805
扮演	-3806
施工	-3807
特定	-3808
種類	-3809
行街	-3810
裡面	-3811
襲擊	-3812
頻率	-3813
,。。	-3814
地鐵站	-3815
有唔同	-3816
辦事處	-3817
係香港一個	-3818
加粗咗嘅字係主幹道	-3819
▁拉	-3820
力學	-3821
校舍	-3822
歌詞	-3823
你老公	-3824
化合物	-3825
喺呢度	-3826
嘅中國	-3827
市政府	-3828
年世界盃	-3829
神經網絡	-3830
路可以係	-3831
一粒	-3832
佢去	-3833
升級	-3834
啲嘢	-3835
嘅前	-3836
就得	-3837
幫助	-3838
救護	-3839
芬蘭	-3840
花名	-3841
近住	-3842
▁現時	-3843
嘅位置	-3844
草本植物	-3845
▁杜	-3846
六個	-3847
周邊	-3848
團隊	-3849
延伸	-3850
攝影	-3851
政區	-3852
文嘅	-3853
旋轉	-3854
錄製	-3855
動物園	-3856
噉嘅名	-3857
//	-3858
卡拉	-3859
威廉	-3860
師範	-3861
移交	-3862
英軍	-3863
身上	-3864
過身	-3865
重量	-3866
港島綫	-3867
生物學	-3868
三百	-3869
之類	-3870
入圍	-3871
快樂	-3872
手起	-3873
榮譽	-3874
理工	-3875
理解	-3876
相傳	-3877
考古	-3878
裝修	-3879
路易	-3880
▁個站	-3881
「」,	-3882
一系列	-3883
我唔知	-3884
係意大利	-3885
可以用嚟	-3886
,2005	-3887
主場	-3888
人哋	-3889
兩大	-3890
嗰條	-3891
報道	-3892
座山	-3893
形嘅	-3894
洛陽	-3895
直轄	-3896
科幻	-3897
觀點	-3898
開幕	-3899
𡃉喇	-3900
▁但系	-3901
係澳門	-3902
星期一	-3903
▁胡	-3904
代數	-3905
佢唔	-3906
個腦	-3907
嚴格	-3908
影視	-3909
灣道	-3910
遺址	-3911
▁就系	-3912
▁果啲	-3913
第二輪	-3914
職業足球聯賽	-3915
介乎	-3916
任命	-3917
定咗	-3918
擴大	-3919
校園	-3920
水上	-3921
百家	-3922
號碼	-3923
道教	-3924
▁唔係	-3925
頂級域	-3926
並冇	-3927
以至	-3928
取得	-3929
桂林	-3930
死後	-3931
無法	-3932
生日	-3933
裝置	-3934
豬肉	-3935
離島	-3936
領銜	-3937
體系	-3938
120	-3939
呢條線	-3940
嘅行為	-3941
時期嘅	-3942
金曲獎	-3943
古老	-3944
咁佢	-3945
打擊	-3946
東站	-3947
溫泉	-3948
皮膚	-3949
舖頭	-3950
資助	-3951
男歌手	-3952
▁誒	-3953
仲未	-3954
州市	-3955
文獻	-3956
日子	-3957
無限	-3958
輔助	-3959
係一套	-3960
果度啊	-3961
研究所	-3962
係香港電視娛樂製作嘅	-3963
,3	-3964
係西	-3965
呢場	-3966
必要	-3967
憑住	-3968
攞嚟	-3969
檔案	-3970
監督	-3971
立方	-3972
系系	-3973
職務	-3974
質數	-3975
開賣	-3976
,9	-3977
▁再	-3978
▁車	-3979
一件	-3980
員工	-3981
喺新	-3982
大幅	-3983
放喺	-3984
神話	-3985
票站	-3986
福岡	-3987
福音	-3988
編輯	-3989
轉頭	-3990
張學友	-3991
三月	-3992
丹麥	-3993
人稱	-3994
冇咩	-3995
北路	-3996
唱歌	-3997
國防	-3998
手法	-3999
擴建	-4000
民意	-4001
睇啊	-4002
酒樓	-4003
工程師	-4004
年代初	-4005
目的係	-4006
電視節目	-4007
93	-4008
價格	-4009
協調	-4010
向東	-4011
哩個	-4012
定系	-4013
層嘅	-4014
警報	-4015
食啊	-4016
哈爾濱	-4017
嘅政治	-4018
▁富	-4019
五月	-4020
改造	-4021
放假	-4022
教師	-4023
斯拉	-4024
暴力	-4025
期嘅	-4026
泳灘	-4027
責任	-4028
代表作	-4029
聽到啊	-4030
年上畫嘅	-4031
冇去	-4032
嗌過	-4033
心靈	-4034
指令	-4035
烏蠅	-4036
盛頓	-4037
總裁	-4038
脫離	-4039
證據	-4040
階級	-4041
西到東	-4042
縣一個市	-4043
立法會選舉	-4044
81	-4045
▁關	-4046
兩者	-4047
公安	-4048
大碟	-4049
童軍	-4050
職位	-4051
藍色	-4052
要用	-4053
返學	-4054
部嘅	-4055
嘅大型	-4056
小精靈	-4057
總決賽	-4058
年度香港	-4059
,2004	-4060
古時	-4061
咗入	-4062
溝通	-4063
空軍	-4064
聯繫	-4065
言論	-4066
證券	-4067
鼓勵	-4068
▁公司	-4069
即系話	-4070
心理學	-4071
選舉喺	-4072
嘅一部分	-4073
▁1993	-4074
上嚟	-4075
嘅分	-4076
國土	-4077
園林	-4078
就由	-4079
從事	-4080
成年	-4081
新村	-4082
流域	-4083
爲咗	-4084
美元	-4085
軍人	-4086
長洲	-4087
題材	-4088
唔係好	-4089
眾議院	-4090
第一位	-4091
:00-	-4092
中央委員會	-4093
▁é	-4094
功效	-4095
堅尼	-4096
等星	-4097
道德	-4098
▁咁咪	-4099
嘅作品	-4100
產生嘅	-4101
聖公會	-4102
遊戲嘅	-4103
1949	-4104
領銜主演	-4105
▁武	-4106
幫佢	-4107
搖滾	-4108
海邊	-4109
畀咗	-4110
省嘅	-4111
立場	-4112
諗法	-4113
離子	-4114
180	-4115
方面嘅	-4116
有線電視	-4117
並無	-4118
南路	-4119
唐朝	-4120
嘅字	-4121
地帶	-4122
省城	-4123
贊助	-4124
陽光	-4125
風雲	-4126
▁嚮	-4127
▁火	-4128
兼且	-4129
千年	-4130
合法	-4131
嗰隻	-4132
提到	-4133
故此	-4134
為首	-4135
聯會	-4136
股票	-4137
華語	-4138
邊界	-4139
位歌手	-4140
1978	-4141
喺中國大陸	-4142
▁內	-4143
▁十	-4144
九巴	-4145
住個	-4146
先得	-4147
後者	-4148
業主	-4149
生果	-4150
譯做	-4151
重會	-4152
麻煩	-4153
嘅建築	-4154
如果你	-4155
年先至	-4156
順序從	-4157
喺翡翠台	-4158
國民政府	-4159
冬季	-4160
大氣	-4161
寫法	-4162
情緒	-4163
花崗	-4164
號起	-4165
閩南	-4166
▁佢同	-4167
游泳池	-4168
其中一種	-4169
立法會議員	-4170
列為	-4171
堅持	-4172
接駁	-4173
處於	-4174
認識	-4175
佢而家	-4176
唔能夠	-4177
嘅成員	-4178
最高嘅	-4179
▁克	-4180
▁趙	-4181
容量	-4182
打仗	-4183
措施	-4184
擊敗	-4185
擴展	-4186
斯克	-4187
疫情	-4188
第八	-4189
編碼	-4190
英皇	-4191
要喺	-4192
試驗	-4193
資產	-4194
里斯	-4195
▁對於	-4196
係唐人	-4197
因為佢	-4198
七月	-4199
技巧	-4200
收集	-4201
整體	-4202
機器	-4203
海底	-4204
港幣	-4205
為人	-4206
舒服	-4207
蝙蝠	-4208
補貼	-4209
邊境	-4210
重視	-4211
▁學校	-4212
交匯處	-4213
任教宗	-4214
唔得閒	-4215
嘅活動	-4216
廣州嘅	-4217
發現咗	-4218
,2	-4219
▁法	-4220
不同	-4221
主播	-4222
太古	-4223
準確	-4224
生咗	-4225
蓮花	-4226
車嘅	-4227
▁其後	-4228
都唔會	-4229
▁1996	-4230
同地區頂級域	-4231
▁分	-4232
▁過	-4233
具體	-4234
同人	-4235
同西	-4236
吸收	-4237
命令	-4238
大使	-4239
常用	-4240
查實	-4241
芝士	-4242
高雄	-4243
▁上海	-4244
所以喺	-4245
會唔會	-4246
▁呢度啲	-4247
西到東排	-4248
係羅馬天主教	-4249
便利	-4250
促進	-4251
入到	-4252
合成	-4253
控股	-4254
族人	-4255
無線	-4256
白話	-4257
絕對	-4258
葵青	-4259
錢啊	-4260
兩岸	-4261
咁解	-4262
樂器	-4263
系咩	-4264
運行	-4265
集體	-4266
▁世界	-4267
一到五	-4268
年正式	-4269
旗下嘅	-4270
男主角	-4271
你係	-4272
係冇	-4273
啟動	-4274
圖案	-4275
最有	-4276
班人	-4277
維修	-4278
續集	-4279
近代	-4280
▁..	-4281
創辦人	-4282
呢件事	-4283
通常會	-4284
係加拿大	-4285
▁宋	-4286
▁盧	-4287
保障	-4288
呢單	-4289
咁咯	-4290
我去	-4291
有大	-4292
適合	-4293
麻地	-4294
個星期	-4295
實驗室	-4296
然之後	-4297
細路仔	-4298
阿根廷	-4299
體育場	-4300
流行音樂	-4301
▁1995	-4302
一切	-4303
一架	-4304
一致	-4305
下降	-4306
六十	-4307
哎呀	-4308
商務	-4309
器官	-4310
底盤	-4311
戰略	-4312
星官	-4313
杭州	-4314
機制	-4315
沿海	-4316
現今	-4317
穿過	-4318
資金	-4319
鋪頭	-4320
800	-4321
之前嘅	-4322
其中加粗咗嘅字係主幹道	-4323
▁許	-4324
兩人	-4325
出海	-4326
努力	-4327
培訓	-4328
患者	-4329
美術	-4330
草地	-4331
▁然而	-4332
喺邊度	-4333
基本法	-4334
都係用	-4335
▁)。。	-4336
係羅馬天主教第	-4337
互動	-4338
交換	-4339
又會	-4340
史稱	-4341
尼斯	-4342
戰役	-4343
班車	-4344
薩克	-4345
受試者	-4346
年參加	-4347
71	-4348
上邊	-4349
不滿	-4350
六月	-4351
嘅後	-4352
平面	-4353
暫停	-4354
氣溫	-4355
畫家	-4356
突圍	-4357
站同	-4358
網頁	-4359
試下	-4360
非法	-4361
▁舊時	-4362
▁隨住	-4363
個電話	-4364
喺英國	-4365
嘅地下	-4366
嘅語言	-4367
果啲野	-4368
美國嘅	-4369
裏面嘅	-4370
_1	-4371
▁徐	-4372
太和	-4373
號係	-4374
連住	-4375
冇幾遠	-4376
出現嘅	-4377
嘅國家同地區頂級域	-4378
82	-4379
▁!	-4380
▁神	-4381
主流	-4382
優勢	-4383
入境	-4384
千萬	-4385
太多	-4386
婚姻	-4387
定居	-4388
密碼	-4389
帶住	-4390
情節	-4391
朝廷	-4392
樖嘢	-4393
王星	-4394
玫瑰	-4395
等佢	-4396
街頭	-4397
里亞	-4398
防止	-4399
▁遊戲	-4400
喺呢個	-4401
被稱為	-4402
斑馬	-4403
正月	-4404
理事	-4405
綫嘅	-4406
衛星	-4407
鴉片	-4408
喺廣東	-4409
年創校	-4410
號成立	-4411
▁500	-4412
最受歡迎	-4413
▁和	-4414
▁夏	-4415
亞運	-4416
個位	-4417
北極	-4418
南沙	-4419
啫嘛	-4420
平民	-4421
方形	-4422
沙漠	-4423
派出	-4424
▁國際	-4425
▁英文	-4426
哥倫比亞	-4427
▁歐	-4428
二月	-4429
入行	-4430
分配	-4431
劇院	-4432
動力	-4433
原始	-4434
向西	-4435
天堂	-4436
平衡	-4437
引致	-4438
文藝	-4439
水嘅	-4440
磷酸	-4441
總監	-4442
聯絡	-4443
食得	-4444
▁期間	-4445
號夜晚	-4446
順序係從	-4447
廣州市政府	-4448
▁會	-4449
你都	-4450
佢系	-4451
做咩	-4452
啊啊	-4453
敵人	-4454
簡化	-4455
讀者	-4456
跟手	-4457
▁車站	-4458
喺一個	-4459
天水圍	-4460
好唔好	-4461
唱片公司	-4462
投入服務	-4463
相當於公元	-4464
▁基	-4465
▁梅	-4466
▁郭	-4467
乾隆	-4468
佐治	-4469
千人	-4470
南區	-4471
整個	-4472
辭職	-4473
進攻	-4474
又寫做	-4475
巴士站	-4476
第一輪	-4477
簡單嘅	-4478
九廣鐵路	-4479
扶手電梯	-4480
,5	-4481
▁星	-4482
▁百	-4483
▁買	-4484
一半	-4485
一國	-4486
公立	-4487
分區	-4488
參演	-4489
學會	-4490
帕斯	-4491
成就	-4492
我唔	-4493
殘疾	-4494
過來	-4495
隊嘅	-4496
黃河	-4497
▁就係	-4498
▁故仔	-4499
係世界	-4500
係泰國	-4501
大西洋	-4502
為日本	-4503
前後總共	-4504
喺香港出世	-4505
無綫電視藝員訓練班	-4506
三日	-4507
先進	-4508
城鎮	-4509
戲院	-4510
比起	-4511
渡輪	-4512
百蚊	-4513
系啦	-4514
自稱	-4515
車廂	-4516
週年	-4517
喺臺灣	-4518
嚟排嘅	-4519
幾時啊	-4520
比較多	-4521
當地嘅	-4522
秘書長	-4523
馬鞍山	-4524
91	-4525
▁因	-4526
做埋	-4527
前往	-4528
南越	-4529
問佢	-4530
在於	-4531
孫權	-4532
學界	-4533
工會	-4534
建成	-4535
有四	-4536
果間	-4537
狀況	-4538
男仔	-4539
▁應該	-4540
▁臺灣	-4541
大革命	-4542
▁格	-4543
三間	-4544
上環	-4545
係東	-4546
向北	-4547
咁啱	-4548
季節	-4549
就響	-4550
帶領	-4551
平嘅	-4552
殺死	-4553
綜藝	-4554
自身	-4555
嘅環境	-4556
大學城	-4557
中國內地	-4558
和諧飛機	-4559
▁雙	-4560
供奉	-4561
審查	-4562
更新	-4563
永久	-4564
用於	-4565
石頭	-4566
稱號	-4567
護照	-4568
都用	-4569
▁,)	-4570
一部分	-4571
女藝員	-4572
就叫做	-4573
有時會	-4574
系畢業	-4575
其中一位	-4576
其中一隻	-4577
年嘅美國	-4578
重可以係	-4579
係全	-4580
改叫	-4581
正確	-4582
死者	-4583
琉球	-4584
西灣	-4585
遺傳	-4586
遼寧	-4587
▁亦有	-4588
▁佢響	-4589
孟加拉	-4590
屋企人	-4591
百家姓	-4592
歐洲足協	-4593
海洋公園	-4594
三種	-4595
呼吸	-4596
唔啱	-4597
宜家	-4598
將個	-4599
某個	-4600
省會	-4601
華僑	-4602
調味	-4603
院長	-4604
麵包	-4605
▁哦你	-4606
▁好啊	-4607
▁我我	-4608
▁點解	-4609
人民幣	-4610
年代尾	-4611
數學家	-4612
部電腦	-4613
係太陽系	-4614
佢都	-4615
內戰	-4616
同中	-4617
填詞	-4618
島嘅	-4619
幾十	-4620
貴族	-4621
之所以	-4622
作曲家	-4623
傳統嘅	-4624
1930	-4625
呢條馬路	-4626
▁1970	-4627
▁月	-4628
一支	-4629
意志	-4630
法官	-4631
港紙	-4632
營養	-4633
版嘅	-4634
節日	-4635
老母	-4636
行到	-4637
週期	-4638
高原	-4639
比利時	-4640
華盛頓	-4641
泛民主派	-4642
文維基百科	-4643
,7	-4644
▁君	-4645
▁烏	-4646
》《	-4647
信徒	-4648
年紀	-4649
成熟	-4650
我啊	-4651
機嘅	-4652
淡季	-4653
而有	-4654
買咗	-4655
進黨	-4656
600	-4657
原產地	-4658
同日本	-4659
政府喺	-4660
有啲人	-4661
返香港	-4662
▁另一方面	-4663
▁事	-4664
▁藍	-4665
商品	-4666
嚟㗎	-4667
心臟	-4668
我想	-4669
指導	-4670
新人	-4671
景點	-4672
隊員	-4673
食肆	-4674
三角形	-4675
以上嘅	-4676
分別喺	-4677
房屋局	-4678
東邊嘅	-4679
,2001	-4680
一時	-4681
人講	-4682
佢講	-4683
加利	-4684
性格	-4685
指示	-4686
新疆	-4687
百貨	-4688
知嘅	-4689
花都	-4690
資本	-4691
達成	-4692
遠東	-4693
開嘅	-4694
分開咗	-4695
嘅學生	-4696
奧運會	-4697
1976	-4698
通常都係	-4699
,2000	-4700
▁頭	-4701
一張	-4702
你又	-4703
係好	-4704
司令	-4705
吉林	-4706
嘅時	-4707
教區	-4708
敦道	-4709
斯洛	-4710
斯科	-4711
武裝	-4712
民政	-4713
永遠	-4714
派嘅	-4715
興起	-4716
認同	-4717
起身	-4718
選票	-4719
160	-4720
▁佢既	-4721
領導人	-4722
,2019	-4723
三條	-4724
創意	-4725
名義	-4726
嗌做	-4727
將領	-4728
對住	-4729
年出	-4730
幼稚	-4731
收視	-4732
會考	-4733
會長	-4734
神星	-4735
第九	-4736
行下	-4737
西安	-4738
金牌	-4739
食嘢	-4740
食左	-4741
龍門	-4742
動物嘅	-4743
影響力	-4744
▁1992	-4745
來回	-4746
先啦	-4747
劇場	-4748
加斯	-4749
咗喺	-4750
學科	-4751
官話	-4752
月至	-4753
灌木	-4754
照顧	-4755
畫面	-4756
確保	-4757
)、《	-4758
你有冇	-4759
嘅設計	-4760
笪地方	-4761
號朝早	-4762
島式月台	-4763
▁外	-4764
▁將	-4765
▁河	-4766
三次	-4767
做野	-4768
障礙	-4769
係一條	-4770
總部喺	-4771
荔枝角	-4772
青少年	-4773
嘅一部份	-4774
▁得	-4775
下次	-4776
中路	-4777
係啊	-4778
包圍	-4779
北角	-4780
嘅小	-4781
困難	-4782
捷克	-4783
物浦	-4784
當做	-4785
籃球	-4786
車廠	-4787
▁地球	-4788
係唐字	-4789
號發現	-4790
:'),	-4791
年間爲日本足球代表隊出場	-4792
▁摩	-4793
▁普	-4794
▁舉	-4795
係囖	-4796
儲存	-4797
先有	-4798
可見	-4799
吖嗎	-4800
種族	-4801
農民	-4802
雞蛋	-4803
總人口	-4804
賽馬會	-4805
▁喺香港	-4806
一直向東	-4807
太平洋颱風	-4808
佢會	-4809
係唔	-4810
加咗	-4811
幾種	-4812
座係	-4813
效率	-4814
海豚	-4815
牛肉	-4816
私家	-4817
秘密	-4818
規範	-4819
費用	-4820
通用	-4821
錯誤	-4822
,10	-4823
主要喺	-4824
1945	-4825
▁<>。。	-4826
係香港嘅一條	-4827
──	-4828
▁+	-4829
▁國	-4830
▁謝	-4831
主唱	-4832
享年	-4833
冇咗	-4834
初頭	-4835
區內	-4836
場所	-4837
大多	-4838
思考	-4839
戰士	-4840
月中	-4841
級嘅	-4842
網友	-4843
跳舞	-4844
馬克	-4845
就已經	-4846
我老公	-4847
多數都係	-4848
文物保護	-4849
路係中國廣東廣州嘅	-4850
▁雲	-4851
人去	-4852
來越	-4853
冧巴	-4854
商舖	-4855
大過	-4856
女王	-4857
山嘅	-4858
年轉	-4859
採取	-4860
沿岸	-4861
海上	-4862
確診	-4863
社交	-4864
記住	-4865
財經	-4866
野生	-4867
▁佢亦	-4868
並唔係	-4869
係一隻	-4870
到香港	-4871
哲學家	-4872
地鐵嘅	-4873
幼稚園	-4874
相對應嘅	-4875
,2002	-4876
▁點	-4877
人權	-4878
伺服	-4879
全體	-4880
劇情	-4881
好熱	-4882
字形	-4883
書面	-4884
最少	-4885
睇吓	-4886
隊長	-4887
▁現代	-4888
嘅遊戲	-4889
年電影	-4890
號先至	-4891
少數民族	-4892
廿一世紀	-4893
▁呢條馬路	-4894
-,	-4895
▁不	-4896
▁維	-4897
上係	-4898
出產	-4899
嘅樣	-4900
建聯	-4901
損失	-4902
民歌	-4903
法庭	-4904
玩具	-4905
真實	-4906
票房	-4907
警告	-4908
首爾	-4909
～,	-4910
110	-4911
3。。	-4912
嘅地位	-4913
越來越	-4914
1974	-4915
屬嘅常綠	-4916
▁1989	-4917
▁條路順序從	-4918
▁莫	-4919
之戰	-4920
咁好	-4921
學嘅	-4922
政務	-4923
曼聯	-4924
架車	-4925
珊瑚	-4926
監察	-4927
範疇	-4928
蜜蜂	-4929
賽季	-4930
風險	-4931
▁北京	-4932
同佢嘅	-4933
因為咁	-4934
當中嘅	-4935
總書記	-4936
起源自	-4937
通過咗	-4938
都會有	-4939
▁呢套劇	-4940
物理學家	-4941
▁連	-4942
九州	-4943
南站	-4944
婦女	-4945
對抗	-4946
我們	-4947
方位	-4948
東山	-4949
洛杉	-4950
神論	-4951
納粹	-4952
規律	-4953
.。。	-4954
加入咗	-4955
南到北	-4956
場競演	-4957
年開張	-4958
▁100	-4959
電影金像	-4960
(「	-4961
一份	-4962
一家	-4963
偶像	-4964
咁講	-4965
坐車	-4966
完美	-4967
班次	-4968
第十	-4969
設喺	-4970
赤柱	-4971
輻射	-4972
運河	-4973
但係喺	-4974
尖沙嘴	-4975
屆日本	-4976
澳門線	-4977
猶太人	-4978
個出入口	-4979
小行星帶	-4980
深圳地鐵	-4981
,2003	-4982
▁1949	-4983
▁呢個站一共有	-4984
三世	-4985
加速	-4986
嘅南	-4987
硬地	-4988
究竟	-4989
算係	-4990
習俗	-4991
財務	-4992
重修	-4993
▁果個	-4994
一陣間	-4995
同美國	-4996
對應嘅	-4997
獨立嘅	-4998
都唔同	-4999
巴士總站	-5000
作戰	-5001
優秀	-5002
各大	-5003
天皇	-5004
好靚	-5005
工藝	-5006
機票	-5007
若干	-5008
要有	-5009
鋼琴	-5010
鯉魚	-5011
點係	-5012
元朗區	-5013
第一屆	-5014
自助服務	-5015
下午	-5016
併入	-5017
做啊	-5018
前嘅	-5019
客戶	-5020
年做	-5021
我知	-5022
教科	-5023
櫻花	-5024
蚊紙	-5025
走咗	-5026
首位	-5027
,17	-5028
▁截至	-5029
伺服器	-5030
冇辦法	-5031
啊果啲	-5032
未去過	-5033
康熙部首	-5034
係拉丁字母同阿剌伯數字串字	-5035
:;	-5036
▁舊	-5037
▁雪	-5038
二級	-5039
公交	-5040
勞工	-5041
城巴	-5042
報名	-5043
實力	-5044
年齡	-5045
排列	-5046
撤銷	-5047
斯基	-5048
有有	-5049
每次	-5050
蘿蔔	-5051
鄰近	-5052
係印度	-5053
唐字係	-5054
大學嘅	-5055
洛杉磯	-5056
西班牙文	-5057
七人	-5058
住民	-5059
係睇	-5060
係講	-5061
嘅古	-5062
嘅正	-5063
大師	-5064
平安	-5065
態度	-5066
成都	-5067
打破	-5068
排行	-5069
會計	-5070
期係	-5071
物品	-5072
現存	-5073
短片	-5074
譯名	-5075
車輛	-5076
郵政	-5077
阿哥	-5078
陸地	-5079
▁經過	-5080
沙田區	-5081
蛋白質	-5082
轉車站	-5083
面積有	-5084
▁可以係	-5085
重有好多	-5086
為日本女子	-5087
▁中華人民共和國	-5088
係中國廣東廣州嘅一間	-5089
為日本女子足球代表隊出場	-5090
中海	-5091
公斤	-5092
劇團	-5093
十分	-5094
嘅歌	-5095
年俾	-5096
擺喺	-5097
政協	-5098
政變	-5099
暑假	-5100
林村	-5101
消化	-5102
美金	-5103
輔導	-5104
開工	-5105
電訊	-5106
韓文	-5107
出現喺	-5108
唯一嘅	-5109
每一個	-5110
舉行嘅	-5111
西貢區	-5112
1973	-5113
最出名嘅	-5114
相對應嘅唐字係	-5115
▁聽	-5116
▁街	-5117
係中	-5118
係新	-5119
原理	-5120
定為	-5121
特拉	-5122
瑪麗	-5123
用緊	-5124
確認	-5125
老闆	-5126
而被	-5127
肌肉	-5128
變做	-5129
路軌	-5130
頒發	-5131
駕駛	-5132
體制	-5133
▁去到	-5134
地下鐵	-5135
段時間	-5136
羽毛球	-5137
號月台	-5138
▁佢相對應嘅唐字係	-5139
▁比	-5140
▁薩	-5141
不時	-5142
之上	-5143
去睇	-5144
古力	-5145
啊哦	-5146
嘅長	-5147
年中	-5148
快啲	-5149
打工	-5150
數列	-5151
猛獅	-5152
老虎	-5153
花序	-5154
重將	-5155
▁」,	-5156
做咩啊	-5157
年之前	-5158
方程式	-5159
著名嘅	-5160
▁西邊從	-5161
先至可以	-5162
其中一間	-5163
喺越秀區	-5164
中央電視台	-5165
文物保護單位	-5166
",	-5167
5,	-5168
三級	-5169
之地	-5170
人造	-5171
以東	-5172
博覽	-5173
嘅西	-5174
天球	-5175
突破	-5176
老撾	-5177
而佢	-5178
質素	-5179
迴圈	-5180
酒家	-5181
所以就	-5182
民建聯	-5183
民進黨	-5184
示威者	-5185
藝術家	-5186
響香港	-5187
1975	-5188
係香港女	-5189
裏頭排第	-5190
,1990	-5191
▁泰	-5192
▁秦	-5193
一係	-5194
低地	-5195
住佢	-5196
再用	-5197
分布	-5198
名人	-5199
奪得	-5200
姊妹	-5201
接手	-5202
智慧	-5203
演奏	-5204
研發	-5205
自從	-5206
論壇	-5207
跑道	-5208
遲啲	-5209
電器	-5210
九龍城	-5211
係越南	-5212
區入面	-5213
軌電車	-5214
都系咁	-5215
南到北排	-5216
係康熙部首	-5217
▁按	-5218
三千	-5219
不死	-5220
交叉	-5221
初時	-5222
到佢	-5223
嘅最	-5224
壯族	-5225
居住	-5226
廣府	-5227
普及	-5228
江門	-5229
相機	-5230
脂肪	-5231
轉移	-5232
配角	-5233
亦即係	-5234
分佈喺	-5235
常用嘅	-5236
所以佢	-5237
繁忙時間	-5238
萬國碼爲	-5239
6,	-5240
、2	-5241
、3	-5242
七個	-5243
俄文	-5244
初中	-5245
去邊	-5246
名為	-5247
嘅兩	-5248
山道	-5249
廿五	-5250
棟樓	-5251
港督	-5252
等如	-5253
裝備	-5254
輕鐵	-5255
▁可能	-5256
嘅交界	-5257
成立嘅	-5258
程式語言	-5259
▁呢種植物	-5260
嘅一粒小行星	-5261
▁在	-5262
下載	-5263
天地	-5264
惠州	-5265
未能	-5266
殺咗	-5267
瀑布	-5268
火燭	-5269
隨機	-5270
順化	-5271
馬場	-5272
係一啲	-5273
做主題	-5274
副總統	-5275
奧斯卡	-5276
搬咗去	-5277
聖誕節	-5278
返轉頭	-5279
人工智能	-5280
共產主義	-5281
空中客車	-5282
係唐人姓氏	-5283
都可以搵到	-5284
一直向東去到	-5285
▁仲	-5286
▁另	-5287
▁玩	-5288
▁飛	-5289
個站	-5290
又好	-5291
古屋	-5292
呢兩	-5293
年再	-5294
廿四	-5295
牛奶	-5296
用語	-5297
直升	-5298
瞓覺	-5299
科目	-5300
老鼠	-5301
衞生	-5302
表明	-5303
讀過	-5304
量嘅	-5305
▁自從	-5306
中心同	-5307
個名係	-5308
喺上海	-5309
建築師	-5310
所在地	-5311
未見過	-5312
特定嘅	-5313
甚至喺	-5314
臺南市	-5315
車站嘅	-5316
1958	-5317
雙層巴士	-5318
年之間嗰十年	-5319
㗎啫	-5320
交畀	-5321
制定	-5322
加工	-5323
安裝	-5324
導師	-5325
我聽	-5326
架構	-5327
纖維	-5328
船灣	-5329
蘇州	-5330
隆拿	-5331
韻母	-5332
▁系咩	-5333
▁面積	-5334
嘅原因	-5335
嘅結果	-5336
市轄區	-5337
得票率	-5338
特別係	-5339
意大利文	-5340
遭到淘汰	-5341
,1999	-5342
中國大陸嘅	-5343
▁呢度啲路嘅	-5344
小行星帶嘅一粒小行星	-5345
▁半	-5346
▁總	-5347
中途	-5348
你唔	-5349
到好	-5350
咗做	-5351
問下	-5352
岩石	-5353
投訴	-5354
新年	-5355
架空	-5356
殺人	-5357
燒烤	-5358
牟利	-5359
直選	-5360
賓館	-5361
走廊	-5362
院校	-5363
140	-5364
其他人	-5365
同你講	-5366
啦系嘛	-5367
機場快	-5368
法蘭西	-5369
第二大	-5370
錦標賽	-5371
中國人民	-5372
家下係地級市	-5373
係太陽系小行星帶嘅一粒小行星	-5374
;)	-5375
▁康	-5376
▁科	-5377
三位	-5378
事故	-5379
冇冇	-5380
唔似	-5381
完工	-5382
工商	-5383
廈門	-5384
流浪	-5385
清遠	-5386
線同	-5387
能源	-5388
自我	-5389
自此	-5390
號叫	-5391
邊啲	-5392
高清	-5393
但因為	-5394
嘅代表	-5395
已經喺	-5396
教育局	-5397
服務嘅	-5398
西北部	-5399
1972	-5400
1977	-5401
▁之不過	-5402
23:00	-5403
▁1994	-5404
▁呢次選舉	-5405
,,	-5406
▁費	-5407
▁風	-5408
分享	-5409
嘅書	-5410
家長	-5411
復活	-5412
手術	-5413
放射	-5414
有啊	-5415
球季	-5416
落車	-5417
迅速	-5418
違反	-5419
重複	-5420
開設	-5421
首個	-5422
▁原本	-5423
▁哎呀	-5424
▁唔使	-5425
佢哋喺	-5426
傳統上	-5427
北邊嘅	-5428
▁雖然話	-5429
成為香港	-5430
▁1960	-5431
一萬	-5432
例外	-5433
初步	-5434
四十	-5435
士兵	-5436
女神	-5437
常委	-5438
年生	-5439
後世	-5440
股東	-5441
色水	-5442
係屬於	-5443
天文台	-5444
自己去	-5445
你個	-5446
你知	-5447
公仔	-5448
劉備	-5449
又喺	-5450
名詞	-5451
多嘅	-5452
富汗	-5453
年畀	-5454
攝氏	-5455
村嘅	-5456
海鮮	-5457
湛江	-5458
群眾	-5459
職員	-5460
音節	-5461
"。。	-5462
全日制	-5463
只不過	-5464
嘅一座	-5465
嘅基礎	-5466
所有嘅	-5467
斯拉夫	-5468
而開始	-5469
▁,),	-5470
交通工具	-5471
年代開始	-5472
▁橋	-5473
六四	-5474
呢部	-5475
咪去	-5476
城嘅	-5477
布斯	-5478
常務	-5479
明確	-5480
苗栗	-5481
開頭	-5482
食嘅	-5483
▁入面	-5484
如果系	-5485
▁熱	-5486
五大	-5487
伊利	-5488
公約	-5489
分解	-5490
子嘅	-5491
學員	-5492
技能	-5493
提議	-5494
會所	-5495
未必	-5496
睇過	-5497
綫路	-5498
腦電	-5499
華裔	-5500
被迫	-5501
評估	-5502
追溯	-5503
音譯	-5504
區議員	-5505
市政局	-5506
未試過	-5507
油麻地	-5508
百分之	-5509
而呢個	-5510
主權移交	-5511
羅馬帝國	-5512
▁樂	-5513
▁真	-5514
▁鐵	-5515
利奧	-5516
創新	-5517
北韓	-5518
友誼	-5519
婆羅	-5520
差人	-5521
建國	-5522
成一	-5523
服裝	-5524
歲時	-5525
老細	-5526
而唔	-5527
航線	-5528
覆蓋	-5529
親自	-5530
隋朝	-5531
▁依家	-5532
嘅概念	-5533
嘅現象	-5534
年代中	-5535
最早嘅	-5536
有機會	-5537
真人騷	-5538
設計嘅	-5539
韓民國	-5540
呢個站嘅	-5541
商業電台	-5542
期無綫電視藝員訓練班	-5543
上映	-5544
今年	-5545
傳教	-5546
同陳	-5547
咗啲	-5548
哩啲	-5549
手指	-5550
歌星	-5551
氣壓	-5552
發布	-5553
終極	-5554
絕種	-5555
落實	-5556
長安	-5557
鬥爭	-5558
▁喂喂	-5559
▁民國	-5560
乜野啊	-5561
畀電話	-5562
科學院	-5563
茶餐廳	-5564
設計師	-5565
祖籍廣東	-5566
▁1991	-5567
係中國廣西	-5568
▁呢度啲路嘅順序係從	-5569
▁細	-5570
▁話	-5571
▁鍾	-5572
一人	-5573
係人	-5574
保證	-5575
入場	-5576
名做	-5577
國籍	-5578
廢除	-5579
彼得	-5580
我冇	-5581
支線	-5582
改良	-5583
有位	-5584
梗係	-5585
移居	-5586
虛擬	-5587
轉換	-5588
返來	-5589
一齊去	-5590
亞熱帶	-5591
委書記	-5592
注意力	-5593
號凌晨	-5594
係世界上	-5595
功能界別	-5596
連埋一齊	-5597
▁中華民國	-5598
即係小行星	-5599
▁&	-5600
▁湯	-5601
一起	-5602
上古	-5603
你冇	-5604
到場	-5605
商店	-5606
太郎	-5607
密切	-5608
平等	-5609
得知	-5610
感情	-5611
拿破	-5612
有所	-5613
相連	-5614
矛盾	-5615
管制	-5616
聚集	-5617
葡幣	-5618
裁判	-5619
訓覺	-5620
部位	-5621
關鍵	-5622
▁之前	-5623
▁第三	-5624
一般係	-5625
佢可以	-5626
使唔使	-5627
呢首歌	-5628
年發現	-5629
族自治	-5630
沙頭角	-5631
道開始	-5632
香港同	-5633
抗日戰爭	-5634
殘疾人士	-5635
▁洪	-5636
二戰	-5637
代號	-5638
佢冇	-5639
入聲	-5640
公務	-5641
升格	-5642
場合	-5643
大聲	-5644
從此	-5645
效應	-5646
數係	-5647
法輪	-5648
海濱	-5649
海關	-5650
石器	-5651
維爾	-5652
蘭卡	-5653
連埋	-5654
鑽石	-5655
電荷	-5656
▁舉個	-5657
以外嘅	-5658
北去到	-5659
堅尼地	-5660
好大隻	-5661
孫中山	-5662
1956	-5663
嘅情況下	-5664
視覺藝術	-5665
、1	-5666
三元	-5667
中有	-5668
主動	-5669
側邊	-5670
全港	-5671
公布	-5672
兼職	-5673
分店	-5674
呢一	-5675
地域	-5676
左邊	-5677
布拉	-5678
成長	-5679
推翻	-5680
收藏	-5681
橫跨	-5682
立即	-5683
粗口	-5684
芒果	-5685
英超	-5686
融合	-5687
軍嘅	-5688
隨著	-5689
隸屬	-5690
▁澳洲	-5691
呢條路	-5692
嘅定義	-5693
嘅數據	-5694
道交界	-5695
香港仔	-5696
軌道交通	-5697
,8	-5698
佔咗	-5699
出邊	-5700
實習	-5701
將啲	-5702
工資	-5703
廚房	-5704
恆大	-5705
捷運	-5706
授權	-5707
星雲	-5708
浪漫	-5709
特登	-5710
百年	-5711
穆斯	-5712
要去	-5713
詞彙	-5714
輸咗	-5715
頭髮	-5716
▁_1	-5717
▁早期	-5718
係澳洲	-5719
嗰個人	-5720
嘅傳統	-5721
嘅內容	-5722
天后廟	-5723
客運站	-5724
年創立	-5725
排球場	-5726
」)。。	-5727
香港特別行政區	-5728
▁塔	-5729
▁港	-5730
人流	-5731
入選	-5732
包裝	-5733
南非	-5734
完整	-5735
我諗	-5736
新邨	-5737
落地	-5738
處長	-5739
蛋糕	-5740
體驗	-5741
,),	-5742
▁兩個	-5743
個程式	-5744
原子序	-5745
亦可以係	-5746
大學畢業	-5747
皇后大道	-5748
係中國大陸嘅	-5749
▁蔡	-5750
、4	-5751
以西	-5752
作詞	-5753
動工	-5754
合理	-5755
外嘅	-5756
如估	-5757
手段	-5758
揀咗	-5759
甜品	-5760
砂岩	-5761
總署	-5762
落班	-5763
補選	-5764
贏得	-5765
韶關	-5766
喺台灣	-5767
希臘文	-5768
立法局	-5769
經理人	-5770
,1997	-5771
係香港嘅一條公共屋邨	-5772
▁市	-5773
人生	-5774
凈得	-5775
反抗	-5776
同李	-5777
含有	-5778
唔見	-5779
安縣	-5780
快餐	-5781
搞過	-5782
是但	-5783
月嘅	-5784
疾病	-5785
相互	-5786
睇佢	-5787
稱之	-5788
等級	-5789
跑馬	-5790
過年	-5791
首席	-5792
(17	-5793
下議院	-5794
名古屋	-5795
嘅節目	-5796
提出嘅	-5797
有以下	-5798
而呢啲	-5799
製作人	-5800
非牟利	-5801
「」。。	-5802
係香港嘅	-5803
電影演員	-5804
▁一般嚟講	-5805
也係日本足球員	-5806
▁千	-5807
▁尼	-5808
▁香	-5809
係無	-5810
係點	-5811
元音	-5812
分三	-5813
同步	-5814
啲咩	-5815
地址	-5816
場嘅	-5817
婚禮	-5818
案件	-5819
立體	-5820
菠蘿	-5821
行去	-5822
詳細	-5823
年創辦	-5824
相關嘅	-5825
長沙灣	-5826
呢個時候	-5827
硬地球場	-5828
,1998	-5829
▁設施有籃球場	-5830
代嘅	-5831
元帥	-5832
原址	-5833
同嘅	-5834
向前	-5835
圍繞	-5836
外來	-5837
寧波	-5838
就無	-5839
屠殺	-5840
擴張	-5841
樹葉	-5842
營業	-5843
米嘅	-5844
謬論	-5845
送到	-5846
鈴木	-5847
鰂魚	-5848
1.5	-5849
二氧化	-5850
原住民	-5851
參議院	-5852
穆斯林	-5853
記者會	-5854
▁我唔知	-5855
二十世紀	-5856
維多利亞港	-5857
</	-5858
▁其	-5859
一下	-5860
下半	-5861
係咁	-5862
假日	-5863
全程	-5864
原創	-5865
哦咁	-5866
啤酒	-5867
嘅啦	-5868
城堡	-5869
對佢	-5870
小心	-5871
札幌	-5872
秋天	-5873
米亞	-5874
足夠	-5875
部落	-5876
部車	-5877
鱷魚	-5878
▁曾經	-5879
唔一定	-5880
喺果度	-5881
嘅世界	-5882
嘅文化	-5883
好似個	-5884
東北部	-5885
街交界	-5886
▁單	-5887
▁該	-5888
住戶	-5889
分校	-5890
右手	-5891
年輕	-5892
拍拖	-5893
攞埋	-5894
普選	-5895
智利	-5896
用品	-5897
用家	-5898
茶樓	-5899
要做	-5900
都城	-5901
間接	-5902
阿阿	-5903
黃蜂	-5904
250	-5905
但由於	-5906
係代表	-5907
嘅形式	-5908
國家隊	-5909
學校嘅	-5910
廿世紀	-5911
英國嘅	-5912
所以又叫	-5913
先知	-5914
又寫	-5915
味道	-5916
好遠	-5917
彩虹	-5918
擅長	-5919
有多	-5920
樣嘅	-5921
液體	-5922
減筆	-5923
熱門	-5924
牌照	-5925
特首	-5926
篇文	-5927
航班	-5928
行路	-5929
降低	-5930
靠住	-5931
高架	-5932
高過	-5933
休息室	-5934
住宅區	-5935
年嗰陣	-5936
日本嘅	-5937
可以去到	-5938
最後一個	-5939
▁1988	-5940
委員會委員	-5941
9,	-5942
▁度	-5943
▁村	-5944
▁若	-5945
一對	-5946
你就	-5947
停辦	-5948
先會	-5949
呼籲	-5950
字典	-5951
定位	-5952
小型	-5953
庭院	-5954
文憑	-5955
暴動	-5956
本名	-5957
流通	-5958
潛水	-5959
生長	-5960
藩市	-5961
虛構	-5962
談判	-5963
車路	-5964
轉寫	-5965
進制	-5966
▁隨後	-5967
即係佢	-5968
嘅動物	-5969
嘅城市	-5970
打中場	-5971
支持者	-5972
係指一個	-5973
▁早	-5974
▁譚	-5975
傾下	-5976
僅次	-5977
再喺	-5978
各有	-5979
嘅神	-5980
後人	-5981
愛國	-5982
提前	-5983
文法	-5984
有咗	-5985
決議	-5986
甲府	-5987
直程	-5988
號由	-5989
路站	-5990
金剛	-5991
高層	-5992
130	-5993
▁》,	-5994
▁仲有	-5995
▁政府	-5996
▁有啊	-5997
可以睇	-5998
嘅基本	-5999
後生仔	-6000
提出咗	-6001
白雲山	-6002
號幹線	-6003
西南部	-6004
鰂魚涌	-6005
1968	-6006
聯賽冠軍	-6007
0.	-6008
08	-6009
▁宮	-6010
▁希	-6011
▁黎	-6012
一名	-6013
光嘅	-6014
冒險	-6015
勳章	-6016
包埋	-6017
占士	-6018
專利	-6019
年又	-6020
影像	-6021
意味	-6022
感知	-6023
斯里	-6024
武帝	-6025
海灘	-6026
煮飯	-6027
獵物	-6028
留喺	-6029
眼鏡	-6030
薄扶	-6031
術語	-6032
西藏	-6033
赤道	-6034
遊埠	-6035
電流	-6036
預留	-6037
(16	-6038
▁嗰度	-6039
係台灣	-6040
係歐洲	-6041
十年嘅	-6042
唔系話	-6043
嘅嘢食	-6044
威爾斯	-6045
直轄市	-6046
第二季	-6047
可以睇到	-6048
,1996	-6049
文化大革命	-6050
▁韋	-6051
主力	-6052
些少	-6053
十萬	-6054
周年	-6055
問你	-6056
嗰種	-6057
增城	-6058
宣稱	-6059
岡薩	-6060
年份	-6061
打入	-6062
搞笑	-6063
瀏覽	-6064
當勞	-6065
練習	-6066
自行	-6067
護理	-6068
買賣	-6069
賽車	-6070
都仲	-6071
酒吧	-6072
乒乓球	-6073
嘅服務	-6074
嘅第三	-6075
地中海	-6076
娛樂圈	-6077
尼西亞	-6078
拿破崙	-6079
時代嘅	-6080
最後喺	-6081
非常之	-6082
代表日本	-6083
大阪櫻花	-6084
政府部門	-6085
歐洲國家	-6086
▁哥	-6087
▁通	-6088
亨利	-6089
係六	-6090
出錢	-6091
南華	-6092
天使	-6093
征服	-6094
性同	-6095
有五	-6096
查理	-6097
次序	-6098
歐美	-6099
漢堡	-6100
玩下	-6101
甘肅	-6102
等到	-6103
紡織	-6104
色彩	-6105
語音	-6106
都同	-6107
首張	-6108
舉辦嘅	-6109
開發區	-6110
1966	-6111
,1993	-6112
▁銀	-6113
主導	-6114
休憩	-6115
倫多	-6116
冇咁	-6117
參觀	-6118
口號	-6119
唔停	-6120
喺呢	-6121
威夷	-6122
就同	-6123
彼此	-6124
批發	-6125
晚會	-6126
樞紐	-6127
母語	-6128
留學	-6129
皇室	-6130
第日	-6131
習近	-6132
起喺	-6133
重話	-6134
鐘頭	-6135
阻止	-6136
領事	-6137
▁咁樣	-6138
一個站	-6139
你你你	-6140
分之一	-6141
有可能	-6142
淨係去	-6143
莫斯科	-6144
▁1950	-6145
▁森	-6146
▁隻	-6147
係天	-6148
勁歌	-6149
呢樣	-6150
定期	-6151
平行	-6152
強制	-6153
性別	-6154
應付	-6155
提早	-6156
最長	-6157
由佢	-6158
聚居	-6159
芝麻	-6160
華路	-6161
蘿崗	-6162
身高	-6163
辦學	-6164
逐步	-6165
道理	-6166
陣間	-6167
風林	-6168
騎士	-6169
黨魁	-6170
做生意	-6171
蚊葡幣	-6172
文化遺產	-6173
香港大學	-6174
一個縣級市	-6175
年度香港小姐競選	-6176
-1	-6177
▁可	-6178
係三	-6179
包住	-6180
叫我	-6181
合稱	-6182
國道	-6183
大人	-6184
女星	-6185
擔心	-6186
教徒	-6187
最尾	-6188
有利	-6189
水道	-6190
滅亡	-6191
畀啲	-6192
發掘	-6193
發揮	-6194
翻唱	-6195
聲稱	-6196
血管	-6197
裝甲	-6198
講明	-6199
電動	-6200
靚女	-6201
▁有人	-6202
中國人	-6203
亦有人	-6204
取消咗	-6205
呢個字	-6206
四十幾	-6207
年開辦	-6208
排行榜	-6209
朱古力	-6210
平均直徑	-6211
▁1985	-6212
係英國倫敦	-6213
人民代表大會	-6214
係中國廣東省廣州市嘅一間	-6215
▁生	-6216
▁貝	-6217
一塊	-6218
一詞	-6219
個別	-6220
八達	-6221
再度	-6222
同事	-6223
多項	-6224
失去	-6225
完善	-6226
尚書	-6227
廣島	-6228
成人	-6229
支撐	-6230
文革	-6231
有間	-6232
條街	-6233
登陸	-6234
科研	-6235
立國	-6236
紫荊	-6237
羅亞	-6238
觀景	-6239
變到	-6240
道光	-6241
零售	-6242
電力	-6243
魔法	-6244
▁梗系	-6245
出來嘅	-6246
只可以	-6247
建制派	-6248
東京都	-6249
第一任	-6250
臺北市	-6251
號開放	-6252
全國人大	-6253
綜藝節目	-6254
巡迴演唱會	-6255
股份有限公司	-6256
07	-6257
仙台	-6258
傳染	-6259
元首	-6260
內亞	-6261
八九	-6262
出街	-6263
司長	-6264
國歌	-6265
大連	-6266
季軍	-6267
持有	-6268
指引	-6269
指標	-6270
正面	-6271
短期	-6272
至於	-6273
華北	-6274
販賣	-6275
▁印度	-6276
▁大埔	-6277
▁都系	-6278
」,「	-6279
伊拉克	-6280
最多嘅	-6281
有幾多	-6282
發展嘅	-6283
1940	-6284
果啲果啲	-6285
颱風警報	-6286
入面有好多	-6287
寵物小精靈	-6288
▁心	-6289
下令	-6290
人氣	-6291
俄國	-6292
化石	-6293
卑詩	-6294
卡通	-6295
啲啊	-6296
媽媽	-6297
採訪	-6298
時任	-6299
會響	-6300
棲息	-6301
火箭	-6302
豆腐	-6303
連串	-6304
風水	-6305
係可以	-6306
大學生	-6307
我話你	-6308
發展商	-6309
發生喺	-6310
第一部	-6311
老人同	-6312
考慮到	-6313
類型嘅	-6314
▁1986	-6315
路係中國廣東	-6316
▁條路從西到東排	-6317
▁吓	-6318
▁魚	-6319
傳奇	-6320
億元	-6321
兩廣	-6322
印象	-6323
司徒	-6324
吳語	-6325
呀噉	-6326
嚟整	-6327
士打	-6328
大同	-6329
延續	-6330
明嘅	-6331
海域	-6332
種種	-6333
積分	-6334
網路	-6335
講過	-6336
鄉村	-6337
重組	-6338
點心	-6339
,12	-6340
700	-6341
▁法國	-6342
一般嘅	-6343
係韓國	-6344
參加咗	-6345
品種嘅	-6346
喐手起	-6347
1959	-6348
▁但係我	-6349
▁系啊我	-6350
甲府風林	-6351
香港時間	-6352
年上畫嘅港產片	-6353
,4	-6354
上訴	-6355
不如	-6356
傾計	-6357
刑事	-6358
千蚊	-6359
咋喎	-6360
喺東	-6361
工黨	-6362
月到	-6363
水戶	-6364
牧師	-6365
睇𡃉	-6366
節奏	-6367
蜀葵	-6368
計畫	-6369
諸葛	-6370
連鎖	-6371
金山	-6372
高達	-6373
點嘅	-6374
嘅功效	-6375
尼亞州	-6376
有乜嘢	-6377
機械人	-6378
其中一條	-6379
好大隻𡃉	-6380
路係中國廣東省廣州市	-6381
年爲日本足球代表隊出場	-6382
▁反	-6383
低過	-6384
佢亦	-6385
利斯	-6386
唔出	-6387
喺中	-6388
嚟搞	-6389
好過	-6390
少啲	-6391
成分	-6392
承諾	-6393
星級	-6394
治安	-6395
維護	-6396
縣嘅	-6397
草原	-6398
較為	-6399
邊緣	-6400
食用	-6401
▁最初	-6402
、、、	-6403
取代咗	-6404
咩野啊	-6405
啊系啊	-6406
年因為	-6407
直升機	-6408
穩定嘅	-6409
計劃嘅	-6410
阿富汗	-6411
音樂會	-6412
1955	-6413
珠江新城	-6414
▁竹	-6415
三號	-6416
主管	-6417
仙女	-6418
仲會	-6419
你嘅	-6420
內陸	-6421
兼任	-6422
到南	-6423
唔用	-6424
墳場	-6425
大批	-6426
就噉	-6427
幾間	-6428
曼谷	-6429
有過	-6430
水電	-6431
法係	-6432
源於	-6433
滿意	-6434
荊州	-6435
評級	-6436
財產	-6437
載客	-6438
電磁	-6439
青春	-6440
鴨脷	-6441
點喺	-6442
僅次於	-6443
嘅地底	-6444
好大嘅	-6445
隻遊戲	-6446
1971	-6447
太係日本足球員	-6448
邨係香港嘅一條公共屋邨	-6449
▁達	-6450
二次	-6451
任職	-6452
佢重	-6453
公益	-6454
分隔	-6455
北克	-6456
同黃	-6457
啦咁	-6458
嚟睇	-6459
地盤	-6460
多年	-6461
大大	-6462
安達	-6463
客務	-6464
專科	-6465
布爾	-6466
打理	-6467
拍嘅	-6468
歸入	-6469
測量	-6470
發言	-6471
筲箕	-6472
紀律	-6473
經紀	-6474
義務	-6475
而死	-6476
落馬	-6477
許浚	-6478
▁()	-6479
▁歐洲	-6480
人類嘅	-6481
使用者	-6482
去美國	-6483
去香港	-6484
另一邊	-6485
喺澳洲	-6486
嘅特徵	-6487
自由黨	-6488
薄扶林	-6489
魁北克	-6490
▁做導演	-6491
年去到前	-6492
海底隧道	-6493
特區政府	-6494
可以用嚟做	-6495
▁$	-6496
▁雷	-6497
之稱	-6498
二期	-6499
分泌	-6500
匈牙	-6501
奇幻	-6502
孫文	-6503
左啊	-6504
得咯	-6505
支廳	-6506
書法	-6507
有機	-6508
率係	-6509
珍珠	-6510
美軍	-6511
鐵道	-6512
霸王	-6513
▁若果	-6514
主要由	-6515
係為咗	-6516
利物浦	-6517
地方嘅	-6518
被視為	-6519
1920	-6520
1962	-6521
▁而家嘅	-6522
一笪地方	-6523
中央委員	-6524
呢次選舉	-6525
十年嘅年代	-6526
年代係指前	-6527
▁中國共產黨	-6528
年之間嗰十年嘅年代	-6529
▁保	-6530
交響	-6531
做出	-6532
分離	-6533
劍橋	-6534
呢套	-6535
嘅光	-6536
太后	-6537
宋朝	-6538
川崎	-6539
年以	-6540
幸福	-6541
度有	-6542
手上	-6543
星馳	-6544
比馬	-6545
港台	-6546
物料	-6547
語支	-6548
開國	-6549
難以	-6550
電池	-6551
係用嚟	-6552
個國家	-6553
公司喺	-6554
匈牙利	-6555
嘅一啲	-6556
大埔區	-6557
完之後	-6558
月成立	-6559
比較少	-6560
組織嘅	-6561
習近平	-6562
馬德里	-6563
1967	-6564
水戶蜀葵	-6565
嘅其中一粒	-6566
改成噉嘅名	-6567
係香港嘅一個	-6568
加盟湖南衛視	-6569
8,	-6570
_2	-6571
之亂	-6572
亞種	-6573
你睇	-6574
個大	-6575
列出	-6576
判斷	-6577
區別	-6578
同水	-6579
唔要	-6580
外地	-6581
大圍	-6582
學上	-6583
守護	-6584
封閉	-6585
就以	-6586
打後	-6587
抽象	-6588
桃園	-6589
沖繩	-6590
法案	-6591
漢族	-6592
直頭	-6593
管治	-6594
舊址	-6595
西斯	-6596
評價	-6597
貨運	-6598
起緊	-6599
靈魂	-6600
預算	-6601
,15	-6602
▁馬來	-6603
南去到	-6604
年日本	-6605
東面係	-6606
鯉魚門	-6607
1965	-6608
嘅同位素	-6609
政治人物	-6610
澳門線轉	-6611
理工大學	-6612
香港電台	-6613
22:30-	-6614
平均直徑約莫	-6615
代表日本參加過	-6616
廣州市人民政府	-6617
老人同殘疾人士	-6618
▁信	-6619
▁方	-6620
▁橫	-6621
一期	-6622
伐克	-6623
似乎	-6624
公署	-6625
及後	-6626
大角	-6627
封鎖	-6628
屏山	-6629
手提	-6630
探測	-6631
接管	-6632
新潟	-6633
檸檬	-6634
波羅	-6635
瀋陽	-6636
烈士	-6637
相繼	-6638
萬幾	-6639
薩爾	-6640
要睇	-6641
認可	-6642
費事	-6643
資深	-6644
追求	-6645
釋放	-6646
金陵	-6647
嘅第二	-6648
專用𨋢	-6649
形成咗	-6650
羊城通	-6651
音樂人	-6652
嘅第一個	-6653
斯洛伐克	-6654
選舉委員會	-6655
7,	-6656
▁京	-6657
主人	-6658
十個	-6659
吉祥	-6660
因應	-6661
太極	-6662
好易	-6663
好高	-6664
寫作	-6665
就讀	-6666
帶埋	-6667
幅圖	-6668
我的	-6669
救援	-6670
月喺	-6671
模仿	-6672
歡樂	-6673
糯米	-6674
落葉	-6675
見於	-6676
願意	-6677
同性戀	-6678
有三個	-6679
畿內亞	-6680
節目嘅	-6681
網球手	-6682
邊度啊	-6683
長時間	-6684
離島區	-6685
1969	-6686
人口大約	-6687
▁1983	-6688
站係深圳地鐵	-6689
▁佢代表日本參加過	-6690
▁象	-6691
係對	-6692
傳遞	-6693
劃分	-6694
啡色	-6695
地質	-6696
城牆	-6697
寫住	-6698
專欄	-6699
幅度	-6700
推測	-6701
提倡	-6702
比安	-6703
深入	-6704
爾夫	-6705
牌坊	-6706
琶洲	-6707
紅軍	-6708
總之	-6709
繼位	-6710
翻新	-6711
行過	-6712
;),	-6713
▁粵語	-6714
使用嘅	-6715
同樓梯	-6716
嘅能力	-6717
形成嘅	-6718
此之外	-6719
喺翡翠台播	-6720
加入無綫電視	-6721
路嘅交界開始	-6722
09	-6723
▁|	-6724
上任	-6725
九鐵	-6726
係隻	-6727
傳到	-6728
八個	-6729
到達	-6730
千葉	-6731
同馬	-6732
單一	-6733
嘅叫	-6734
培養	-6735
山形	-6736
師傅	-6737
幫我	-6738
座位	-6739
強嘅	-6740
我系	-6741
所屬	-6742
打到	-6743
果次	-6744
母艦	-6745
水手	-6746
消滅	-6747
瀝滘	-6748
爸爸	-6749
特性	-6750
社團	-6751
貨品	-6752
買啲	-6753
轉化	-6754
阿頭	-6755
離婚	-6756
北美洲	-6757
同社會	-6758
文化嘅	-6759
日本人	-6760
第一季	-6761
蓋爾文	-6762
越南文	-6763
1964	-6764
▁我話你	-6765
作品包括	-6766
斯里蘭卡	-6767
▁即	-6768
五百	-6769
個頭	-6770
停播	-6771
傑出	-6772
分數	-6773
卡片	-6774
原有	-6775
大唐	-6776
好鬼	-6777
山地	-6778
廣義	-6779
延段	-6780
想要	-6781
新華	-6782
日頭	-6783
極端	-6784
票務	-6785
突出	-6786
細菌	-6787
綠茵	-6788
編曲	-6789
缺乏	-6790
諸侯	-6791
重嘅	-6792
高鐵	-6793
另一種	-6794
同英國	-6795
喺同年	-6796
東南部	-6797
▁差唔多	-6798
但係由於	-6799
維基媒體	-6800
超級聯賽	-6801
,1991	-6802
▁1987	-6803
▁系啊系啊系啊	-6804
▁藤	-6805
▁路	-6806
▁首	-6807
之處	-6808
個波	-6809
先去	-6810
古廟	-6811
同東	-6812
唯有	-6813
嘢飲	-6814
垂直	-6815
士多	-6816
實業	-6817
將來	-6818
導遊	-6819
山神	-6820
巴布	-6821
打敗	-6822
探險	-6823
改建	-6824
放入	-6825
春天	-6826
本科	-6827
條村	-6828
樹木	-6829
泊爾	-6830
營盤	-6831
玩嘅	-6832
竹坑	-6833
草案	-6834
邊形	-6835
長春	-6836
隨即	-6837
隨時	-6838
飛腳	-6839
▁_2	-6840
▁聽日	-6841
公務員	-6842
唔使咁	-6843
嘅功能	-6844
嘅訊息	-6845
嘅鐵路	-6846
多倫多	-6847
如果係	-6848
治時期	-6849
法輪功	-6850
西面係	-6851
▁嗰陣時	-6852
選區議員	-6853
青山公路	-6854
▁威	-6855
▁興	-6856
▁野	-6857
介石	-6858
南極	-6859
嘅心	-6860
地上	-6861
如此	-6862
專線	-6863
左去	-6864
戶外	-6865
權益	-6866
當今	-6867
精選	-6868
系呀	-6869
組別	-6870
而言	-6871
街口	-6872
譽為	-6873
貪污	-6874
途中	-6875
關閘	-6876
音韻	-6877
105	-6878
事實上	-6879
但係佢	-6880
南邊嘅	-6881
就係喺	-6882
號下晝	-6883
過好多	-6884
1961	-6885
1963	-6886
▁你而家	-6887
22:30	-6888
主體	-6889
啲咯	-6890
嘅四	-6891
嘅美	-6892
執教	-6893
射擊	-6894
對稱	-6895
山縣	-6896
支流	-6897
會以	-6898
格式	-6899
沙灘	-6900
秩序	-6901
簽署	-6902
論證	-6903
避開	-6904
關閉	-6905
112	-6906
呢樣嘢	-6907
嘅人工	-6908
荃灣區	-6909
處理器	-6910
國家公園	-6911
一直向北去到	-6912
係日本北海道	-6913
▁先	-6914
▁行	-6915
並由	-6916
之用	-6917
你咪	-6918
兩國	-6919
其一	-6920
劇本	-6921
四百	-6922
園區	-6923
執笠	-6924
塑膠	-6925
好貴	-6926
小輪	-6927
張國	-6928
感官	-6929
推薦	-6930
文田	-6931
有乜	-6932
東風	-6933
構造	-6934
機動	-6935
涉嫌	-6936
脊椎	-6937
號晚	-6938
衍生	-6939
警務	-6940
踢波	-6941
鎮壓	-6942
4。。	-6943
▁唔同	-6944
不死鳥	-6945
司司長	-6946
夏威夷	-6947
就變成	-6948
新聞台	-6949
最長嘅	-6950
番禺區	-6951
聖保羅	-6952
蔣介石	-6953
運動嘅	-6954
鴨脷洲	-6955
▁佢曾經	-6956
大阪飛腳	-6957
,1994	-6958
係無綫電視	-6959
打中場位置	-6960
全國人民代表大會	-6961
06	-6962
:"	-6963
▁馮	-6964
下邊	-6965
主修	-6966
卡斯	-6967
同海	-6968
天體	-6969
字體	-6970
實用	-6971
岐阜	-6972
快線	-6973
死人	-6974
睇成	-6975
貨櫃	-6976
陣營	-6977
風球	-6978
不過佢	-6979
再加上	-6980
可以由	-6981
同埋喺	-6982
唔少人	-6983
啊即系	-6984
嘅講法	-6985
廣州話	-6986
我上次	-6987
發展成	-6988
發生咗	-6989
等等嘅	-6990
行政院	-6991
跑馬地	-6992
一段時間	-6993
有啲乜嘢	-6994
▁1984	-6995
係香港歌手	-6996
-2	-6997
▁彭	-6998
亦即	-6999
公式	-7000
同志	-7001
單程	-7002
坑口	-7003
家嘅	-7004
山上	-7005
德拉	-7006
會由	-7007
油尖	-7008
湘南	-7009
熊本	-7010
穿梭	-7011
維斯	-7012
體積	-7013
鹹濕	-7014
▁今晚	-7015
▁呢場	-7016
▁邊個	-7017
一開始	-7018
係大清	-7019
周星馳	-7020
相對於	-7021
號開通	-7022
可以話係	-7023
福岡黃蜂	-7024
▁1945	-7025
女子世界盃	-7026
轄下嘅一個	-7027
居者有其屋屋苑	-7028
▁假	-7029
▁時	-7030
▁赤	-7031
上課	-7032
中正	-7033
中醫	-7034
做得	-7035
創始	-7036
升降	-7037
叱咤	-7038
回憶	-7039
大隻	-7040
學系	-7041
年獲	-7042
廠房	-7043
我要	-7044
抵抗	-7045
東岸	-7046
沒有	-7047
浸會	-7048
牛油	-7049
發售	-7050
監獄	-7051
監管	-7052
秀文	-7053
致力	-7054
花生	-7055
轉變	-7056
辣椒	-7057
農場	-7058
途徑	-7059
▁佢佢	-7060
▁成個	-7061
一般喺	-7062
內蒙古	-7063
延長到	-7064
應該系	-7065
敘利亞	-7066
市政大廈	-7067
▁呢個站有	-7068
▁設施有硬地球場	-7069
▁屌	-7070
▁甲	-7071
三菱	-7072
下一	-7073
事物	-7074
住響	-7075
呈現	-7076
唔肯	-7077
嗰橛	-7078
堂區	-7079
大帝	-7080
宣言	-7081
家同	-7082
帶來	-7083
幫你	-7084
年時	-7085
成咗	-7086
拜仁	-7087
排隊	-7088
搵食	-7089
斯頓	-7090
月球	-7091
爾個	-7092
獵食	-7093
玩法	-7094
當然	-7095
線路	-7096
論文	-7097
通行	-7098
金馬	-7099
之後又	-7100
九龍塘	-7101
冇幾耐	-7102
唔記得	-7103
嘅巴士	-7104
嘅歌手	-7105
新西蘭	-7106
有陣時	-7107
消費者	-7108
稱之為	-7109
終點站	-7110
縣級市	-7111
英國人	-7112
語言學	-7113
可以分做	-7114
比較出名嘅	-7115
▁約	-7116
之路	-7117
冰島	-7118
又名	-7119
嘉義	-7120
團結	-7121
增強	-7122
外面	-7123
布魯	-7124
日期	-7125
板塊	-7126
沙洲	-7127
清真	-7128
爾德	-7129
臺中	-7130
號被	-7131
親王	-7132
豉油	-7133
逃犯	-7134
領地	-7135
▁全會	-7136
▁現任	-7137
九龍灣	-7138
低地台	-7139
個名叫	-7140
嘅月台	-7141
嘅社會	-7142
嘅稱呼	-7143
觀塘區	-7144
過程中	-7145
1946	-7146
1952	-7147
同埋香港	-7148
名係嚟自	-7149
年喺香港	-7150
機場快綫	-7151
資訊節目	-7152
中央政治局	-7153
京都不死鳥	-7154
真人騷節目	-7155
▁依	-7156
▁嗰	-7157
一區	-7158
一早	-7159
全民	-7160
別墅	-7161
右邊	-7162
喂喂	-7163
四五	-7164
地亞	-7165
小小	-7166
往來	-7167
探索	-7168
極限	-7169
水同	-7170
沙伯	-7171
純粹	-7172
羅湖	-7173
銀仔	-7174
阿爺	-7175
飯店	-7176
點到	-7177
▁所有	-7178
▁鈴木	-7179
之後再	-7180
以下嘅	-7181
位皇帝	-7182
係當時	-7183
地球嘅	-7184
大致上	-7185
年亞洲	-7186
有幾個	-7187
海拔高	-7188
觀塘綫	-7189
航空母艦	-7190
,1995	-7191
▁2020	-7192
熱帶氣旋名	-7193
年女子世界盃	-7194
不停	-7195
修正	-7196
入波	-7197
全年	-7198
出生	-7199
力士	-7200
十日	-7201
同小	-7202
君子	-7203
嘅詞	-7204
國共	-7205
士頓	-7206
多元	-7207
夢想	-7208
學派	-7209
專營	-7210
山路	-7211
島上	-7212
度假	-7213
志願	-7214
接任	-7215
淨系	-7216
生殖	-7217
級別	-7218
累積	-7219
觀念	-7220
間屋	-7221
雪糕	-7222
面臨	-7223
體重	-7224
龍頭	-7225
係南韓	-7226
冇任何	-7227
問題嘅	-7228
因為喺	-7229
由一個	-7230
發現嘅	-7231
禮拜六	-7232
自民黨	-7233
通常指	-7234
亦係香港	-7235
▁1982	-7236
中國國民黨	-7237
號逢禮拜一到五	-7238
▁佛	-7239
佢要	-7240
傷害	-7241
充滿	-7242
八號	-7243
商會	-7244
嘅路	-7245
填地	-7246
得名	-7247
德路	-7248
心跳	-7249
支綫	-7250
改返	-7251
文人	-7252
書寫	-7253
桌球	-7254
深夜	-7255
濱海	-7256
病逝	-7257
簽訂	-7258
米蘭	-7259
統稱	-7260
花地	-7261
補習	-7262
貨車	-7263
迷你	-7264
郁動	-7265
長達	-7266
間嘅	-7267
音標	-7268
魔術	-7269
鳥棲	-7270
▁[[	-7271
▁下面	-7272
係荷蘭	-7273
個單位	-7274
哈薩克	-7275
應該係	-7276
消防員	-7277
第一條	-7278
約莫有	-7279
紅十字	-7280
葵青區	-7281
喺白雲區	-7282
日本帝國	-7283
而家已經	-7284
嘅其中一粒衞星	-7285
_3	-7286
▁手	-7287
▁齊	-7288
中東	-7289
五代	-7290
人體	-7291
修復	-7292
全線	-7293
公祠	-7294
十蚊	-7295
只得	-7296
嘅河	-7297
子彈	-7298
收尾	-7299
未知	-7300
格林	-7301
極之	-7302
演講	-7303
澎湖	-7304
爾斯	-7305
牡丹	-7306
綠化	-7307
維他	-7308
肇慶	-7309
背叛	-7310
藍田	-7311
貨物	-7312
途經	-7313
通去	-7314
長城	-7315
雅典	-7316
預防	-7317
馬頭	-7318
▁30	-7319
▁你話	-7320
▁間嘢	-7321
主要用	-7322
先至得	-7323
參賽者	-7324
嘅生活	-7325
嘅速度	-7326
大約有	-7327
好多個	-7328
年做過	-7329
得唔得	-7330
活動室	-7331
紀念碑	-7332
置引擎	-7333
香港一	-7334
▁以下係	-7335
中古漢語	-7336
好多地方	-7337
死咗之後	-7338
王豬籠草	-7339
,1980	-7340
[]	-7341
▁家	-7342
一類	-7343
七夕	-7344
下游	-7345
二號	-7346
去買	-7347
啦夢	-7348
大衛	-7349
好細	-7350
山同	-7351
巴爾	-7352
建華	-7353
引力	-7354
打過	-7355
接替	-7356
撞到	-7357
斯德	-7358
最新	-7359
會上	-7360
樓盤	-7361
次次	-7362
歌王	-7363
牛頓	-7364
用地	-7365
皮層	-7366
細過	-7367
編程	-7368
落雨	-7369
軍區	-7370
過海	-7371
道具	-7372
隊伍	-7373
馬尼	-7374
世紀中	-7375
喺國土	-7376
嗰陣嘅	-7377
嘅電腦	-7378
尼泊爾	-7379
東鐵綫	-7380
約聖經	-7381
聯合會	-7382
聽得到	-7383
落馬洲	-7384
最重要嘅	-7385
鳥棲砂岩	-7386
鴉片戰爭	-7387
之間嘅關係	-7388
係中國北京	-7389
扶手電梯同樓梯	-7390
任內	-7391
保加	-7392
優先	-7393
入伙	-7394
分散	-7395
前者	-7396
加泰	-7397
喺水	-7398
嘅嘛	-7399
嘅星	-7400
好差	-7401
左派	-7402
年因	-7403
強度	-7404
德島	-7405
德蘭	-7406
戲曲	-7407
提及	-7408
木星	-7409
末年	-7410
漢藏	-7411
災難	-7412
當係	-7413
粵人	-7414
老友	-7415
至尊	-7416
落選	-7417
蜘蛛	-7418
講嘢	-7419
郊區	-7420
都想	-7421
電氣	-7422
保護區	-7423
大量嘅	-7424
屯門區	-7425
第一批	-7426
號上晝	-7427
見到佢	-7428
阿剌伯	-7429
▁哦哦哦	-7430
中山大學	-7431
作業系統	-7432
其他地方	-7433
澳門居民	-7434
太平洋颱風季嘅	-7435
01	-7436
一系	-7437
保育	-7438
公屋	-7439
公社	-7440
功夫	-7441
北美	-7442
同日	-7443
商鋪	-7444
就去	-7445
帶嚟	-7446
搶救	-7447
收返	-7448
樹皮	-7449
歐陽	-7450
水域	-7451
汕頭	-7452
瀕危	-7453
爾多	-7454
睇法	-7455
競賽	-7456
笪地	-7457
等同	-7458
菜式	-7459
萬蚊	-7460
蔬菜	-7461
藥物	-7462
補充	-7463
課室	-7464
起來	-7465
超越	-7466
進修	-7467
里達	-7468
錄影	-7469
錦田	-7470
食完	-7471
馬達	-7472
▁")	-7473
▁50	-7474
▁真系	-7475
▁系呀	-7476
並且喺	-7477
你果度	-7478
南美洲	-7479
嘅做法	-7480
嘅狀態	-7481
嘅美國	-7482
發展局	-7483
而家有	-7484
聽到啦	-7485
通常用	-7486
開始有	-7487
1954	-7488
▁南邊從	-7489
上海地鐵	-7490
評為香港	-7491
係香港女演員	-7492
......。。	-7493
▁跟	-7494
▁魯	-7495
元朝	-7496
切韻	-7497
半年	-7498
又將	-7499
國慶	-7500
寶石	-7501
悠久	-7502
打開	-7503
整到	-7504
早餐	-7505
星等	-7506
時報	-7507
會被	-7508
松鼠	-7509
民生	-7510
泛指	-7511
西關	-7512
解做	-7513
道中	-7514
閃電	-7515
零舍	-7516
其實係	-7517
南面係	-7518
同位素	-7519
啲學生	-7520
塞阿拉	-7521
太陽神	-7522
都有人	-7523
個舞蹈員	-7524
全球各地	-7525
全國代表大會	-7526
太平洋颱風季嘅熱帶氣旋名	-7527
▁戴	-7528
▁莊	-7529
假說	-7530
傳入	-7531
冇耐	-7532
同音	-7533
唔錯	-7534
嘅上	-7535
就快	-7536
振英	-7537
斯嘅	-7538
新鮮	-7539
月光	-7540
榕樹	-7541
沙地	-7542
而呢	-7543
連同	-7544
過半	-7545
部機	-7546
門嘅	-7547
難民	-7548
,16	-7549
▁90	-7550
▁佢有	-7551
▁假設	-7552
▁近年	-7553
亦有啲	-7554
仙女座	-7555
凈係得	-7556
醫學院	-7557
二氧化碳	-7558
喺天河區	-7559
好啊好啊	-7560
或者其他	-7561
湘南比馬	-7562
行人天橋	-7563
電視網絡	-7564
委員會主席	-7565
歐洲足協盃	-7566
平係日本足球員	-7567
▁潘	-7568
▁紫	-7569
亞拉	-7570
亮相	-7571
企鵝	-7572
嘅病	-7573
情人	-7574
情報	-7575
書室	-7576
朝陽	-7577
機同	-7578
權嘅	-7579
激烈	-7580
發覺	-7581
眾多	-7582
綽號	-7583
線性	-7584
老竇	-7585
肉眼	-7586
西站	-7587
詠麟	-7588
警員	-7589
開業	-7590
露天	-7591
(15	-7592
”。。	-7593
▁大明	-7594
同時亦	-7595
同演員	-7596
嘅國際	-7597
影響到	-7598
德意志	-7599
理神論	-7600
知唔知	-7601
站廳嘅	-7602
都係喺	-7603
):。。	-7604
▁而佢嘅	-7605
,1989	-7606
▁呢間學校	-7607
係香港男演員	-7608
係太平洋颱風季嘅熱帶氣旋名	-7609
▁孔	-7610
不等	-7611
不足	-7612
制服	-7613
同啲	-7614
向量	-7615
嘉欣	-7616
國中	-7617
多利	-7618
失業	-7619
掌握	-7620
柴油	-7621
民航	-7622
理學	-7623
筆畫	-7624
縣人	-7625
舊嘅	-7626
設定	-7627
詩歌	-7628
阿里	-7629
院士	-7630
騰訊	-7631
▁呢隻	-7632
▁如估	-7633
▁然後	-7634
▁皆因	-7635
▁點啊	-7636
主打歌	-7637
主義嘅	-7638
主義者	-7639
做主持	-7640
北半球	-7641
就咁叫	-7642
屋苑喺	-7643
政治家	-7644
發展出	-7645
開始喺	-7646
電單車	-7647
1951	-7648
官方語言	-7649
樓係站廳	-7650
而改成噉嘅名	-7651
聯合颱風警報	-7652
05	-7653
▁柏	-7654
一屆	-7655
中巴	-7656
交配	-7657
南昌	-7658
噉做	-7659
廟宇	-7660
感應	-7661
敏感	-7662
東尼	-7663
樓高	-7664
清潔	-7665
煙花	-7666
犀牛	-7667
用佢	-7668
發燒	-7669
皇宮	-7670
緊張	-7671
菩薩	-7672
議題	-7673
賭場	-7674
起點	-7675
過渡	-7676
食肉	-7677
6。。	-7678
_10	-7679
▁多數	-7680
▁套戲	-7681
▁就喺	-7682
▁等等	-7683
係印尼	-7684
勝利船	-7685
北面係	-7686
呢個係	-7687
呢啲野	-7688
嘅一次	-7689
工業區	-7690
最多人	-7691
總經理	-7692
董事長	-7693
公共交通	-7694
改革開放	-7695
日常生活	-7696
都未去過	-7697
神戶勝利船	-7698
聯合颱風警報中心	-7699
▁女	-7700
▁柯	-7701
▁雞	-7702
▁韓	-7703
位嘅	-7704
你系	-7705
佢以	-7706
係套	-7707
加勒	-7708
北站	-7709
各類	-7710
向上	-7711
吳國	-7712
土木	-7713
執法	-7714
客串	-7715
已知	-7716
形目	-7717
援助	-7718
有用	-7719
漢人	-7720
灰色	-7721
確立	-7722
社群	-7723
聽講	-7724
背脊	-7725
衝擊	-7726
親戚	-7727
軍官	-7728
零零	-7729
面上	-7730
!。。	-7731
▁25	-7732
▁作為	-7733
三角洲	-7734
主要有	-7735
例子有	-7736
國家級	-7737
必須要	-7738
改名為	-7739
有少少	-7740
油尖旺	-7741
號通車	-7742
1925	-7743
▁哦即系	-7744
啟德機場	-7745
朝鮮半島	-7746
羽毛球場	-7747
七人足球場	-7748
▁街名係嚟自	-7749
年間為日本女子足球代表隊出場	-7750
▁呂	-7751
▁建	-7752
、5	-7753
㗎咯	-7754
一組	-7755
上述	-7756
不得	-7757
不變	-7758
並以	-7759
人對	-7760
值得	-7761
召集	-7762
呢項	-7763
唔受	-7764
問我	-7765
國旗	-7766
土星	-7767
培正	-7768
多樣	-7769
實質	-7770
就畀	-7771
屋頂	-7772
幕後	-7773
得主	-7774
慕尼	-7775
拉咗	-7776
拍檔	-7777
文帝	-7778
沙灣	-7779
泳場	-7780
率先	-7781
聲嘅	-7782
角嘅	-7783
認證	-7784
講野	-7785
逝世	-7786
驅動	-7787
▁",	-7788
▁24	-7789
▁沙田	-7790
▁直至	-7791
伯利亞	-7792
個社區	-7793
出版社	-7794
古羅馬	-7795
同文化	-7796
嘅最高	-7797
幾個月	-7798
有好大	-7799
社會嘅	-7800
突圍賽	-7801
唔知邊個	-7802
塞爾維亞	-7803
有好多種	-7804
芭蕾舞劇	-7805
,1987	-7806
康樂及文化事務署管	-7807
▁渠	-7808
乾淨	-7809
入學	-7810
叫你	-7811
單獨	-7812
嘅花	-7813
四圍	-7814
夾硬	-7815
就被	-7816
屍體	-7817
幼兒	-7818
抗戰	-7819
文係	-7820
旁邊	-7821
櫃員	-7822
熟悉	-7823
球證	-7824
當成	-7825
症狀	-7826
省級	-7827
示範	-7828
虎門	-7829
要等	-7830
評為	-7831
誕生	-7832
講啦	-7833
連載	-7834
錢嘅	-7835
長崎	-7836
長途	-7837
開播	-7838
開會	-7839
馬里	-7840
▁中山	-7841
▁睇下	-7842
「」)	-7843
劉德華	-7844
又唔系	-7845
嘅稱號	-7846
山隧道	-7847
現代化	-7848
號起好	-7849
▁佢而家	-7850
合約藝員	-7851
正式開始	-7852
科技大學	-7853
▁1979	-7854
喺北京時間	-7855
廣州地鐵嘅車站	-7856
▁川	-7857
▁特	-7858
▁瑪	-7859
一句	-7860
三峽	-7861
亞美	-7862
今朝	-7863
休閒	-7864
做乜	-7865
北岸	-7866
卒之	-7867
又再	-7868
咩咩	-7869
唐代	-7870
國有	-7871
好近	-7872
宗祠	-7873
常住	-7874
影相	-7875
有毒	-7876
本站	-7877
每集	-7878
氨酸	-7879
水量	-7880
神秘	-7881
群體	-7882
茂名	-7883
西岸	-7884
視乎	-7885
話你	-7886
講述	-7887
轉到	-7888
部片	-7889
雕塑	-7890
食咗	-7891
▁佢地	-7892
一般都	-7893
做一個	-7894
唔舒服	-7895
嘅一位	-7896
嘅一款	-7897
嘅比賽	-7898
好容易	-7899
客家人	-7900
建立咗	-7901
氣象廳	-7902
活動嘅	-7903
睇唔到	-7904
萬人次	-7905
西九龍	-7906
西南邊	-7907
配音員	-7908
青衣島	-7909
同埋其他	-7910
呢個名由	-7911
平方千米	-7912
建築風格	-7913
逃犯條例	-7914
樹係日本足球員	-7915
22:30-23:00	-7916
▁恩	-7917
▁景	-7918
仙奴	-7919
佛寺	-7920
依賴	-7921
克羅	-7922
全書	-7923
動詞	-7924
嘅白	-7925
大夫	-7926
奧斯	-7927
日嘅	-7928
會對	-7929
樹林	-7930
氧氣	-7931
涼茶	-7932
漁民	-7933
環市	-7934
發育	-7935
百姓	-7936
而今	-7937
視頻	-7938
鄉事	-7939
關心	-7940
電路	-7941
▁套劇	-7942
三藩市	-7943
上面有	-7944
世紀末	-7945
佢哋係	-7946
價介乎	-7947
冇經過	-7948
可以將	-7949
同我講	-7950
嘅英文	-7951
嚴重嘅	-7952
岡薩多	-7953
已經係	-7954
改編自	-7955
時今日	-7956
橢圓形	-7957
瀏覽器	-7958
▁呢期係	-7959
▁曾經喺	-7960
仙台七夕	-7961
國會選舉	-7962
山形山神	-7963
往返月台	-7964
熱帶風暴	-7965
石器時代	-7966
美國總統	-7967
札幌岡薩多	-7968
2.	-7969
:《	-7970
▁乾	-7971
▁蕭	-7972
▁雨	-7973
一八	-7974
一生	-7975
亞視	-7976
亦可	-7977
亦被	-7978
仔嘅	-7979
八景	-7980
口語	-7981
呢點	-7982
唔過	-7983
嘅位	-7984
圖片	-7985
州長	-7986
工務	-7987
左佢	-7988
得以	-7989
批判	-7990
接住	-7991
會館	-7992
果陣	-7993
樣似	-7994
步驟	-7995
法則	-7996
無乜	-7997
王菲	-7998
理念	-7999
理性	-8000
當代	-8001
競技	-8002
結論	-8003
總體	-8004
美食	-8005
英鎊	-8006
起嚟	-8007
酋長	-8008
里活	-8009
銀河	-8010
電壓	-8011
靠近	-8012
鴻基	-8013
麗的	-8014
▁無論	-8015
▁電影	-8016
之類嘅	-8017
係非洲	-8018
八達通	-8019
公開賽	-8020
原有嘅	-8021
慕尼黑	-8022
教科文	-8023
第二年	-8024
街開始	-8025
複雜嘅	-8026
記憶體	-8027
頒獎禮	-8028
一個地方	-8029
喺海珠區	-8030
喺荔灣區	-8031
歌唱大賽	-8032
▁1981	-8033
中西	-8034
五羊	-8035
人就	-8036
住啲	-8037
佐敦	-8038
候補	-8039
傳聞	-8040
克里	-8041
刺史	-8042
同前	-8043
嘅頭	-8044
噉就	-8045
四蚊	-8046
大力	-8047
家人	-8048
感冒	-8049
搜索	-8050
摩天	-8051
改裝	-8052
放學	-8053
月餅	-8054
欣賞	-8055
武力	-8056
永康	-8057
滿地	-8058
演繹	-8059
由李	-8060
英九	-8061
轉向	-8062
農村	-8063
透露	-8064
開埠	-8065
▁26	-8066
▁每年	-8067
一次過	-8068
倫西亞	-8069
先有得	-8070
兩個月	-8071
呢單嘢	-8072
嗰啲嘢	-8073
嘅標準	-8074
子領域	-8075
漫畫家	-8076
男藝人	-8077
追溯到	-8078
過香港	-8079
集中喺	-8080
雖然話	-8081
食飯啊	-8082
▁》。。	-8083
▁香港嘅	-8084
中央政府	-8085
機械學習	-8086
體育中心	-8087
價介乎港幣	-8088
嗰時嘅開賣	-8089
嗰時嘅開賣價介乎港幣	-8090
▁伍	-8091
▁種	-8092
▁起	-8093
」「	-8094
但唔	-8095
俗語	-8096
俱樂	-8097
儀器	-8098
公告	-8099
動漫	-8100
只會	-8101
咁快	-8102
啱先	-8103
喺海	-8104
地處	-8105
天王	-8106
容納	-8107
幫到	-8108
河口	-8109
油塘	-8110
混亂	-8111
演化	-8112
珠寶	-8113
病死	-8114
站名	-8115
竟然	-8116
考生	-8117
變種	-8118
買到	-8119
走佬	-8120
點零	-8121
▁23	-8122
▁中文	-8123
▁到時	-8124
你幾時	-8125
係舊時	-8126
冇問題	-8127
啦而家	-8128
平假名	-8129
新界東	-8130
月起好	-8131
系列嘅	-8132
號首播	-8133
譚詠麟	-8134
音樂劇	-8135
勁歌金曲	-8136
國家主席	-8137
,1988	-8138
▁呢個屋苑喺	-8139
香港時間逢禮拜	-8140
▁島	-8141
▁曹	-8142
▁陸	-8143
上咗	-8144
中英	-8145
乙組	-8146
勒密	-8147
南洋	-8148
名稱	-8149
呢座	-8150
咋喔	-8151
嘅東	-8152
四季	-8153
回合	-8154
大火	-8155
容許	-8156
對出	-8157
幾百	-8158
懲教	-8159
炸彈	-8160
田徑	-8161
落台	-8162
蔴雀	-8163
蘇丹	-8164
複製	-8165
證書	-8166
變調	-8167
路環	-8168
軍閥	-8169
迷宮	-8170
道西	-8171
都去	-8172
錫克	-8173
高音	-8174
▁="	-8175
▁你地	-8176
一分為	-8177
下個月	-8178
世界嘅	-8179
何文田	-8180
個禮拜	-8181
健身室	-8182
南邊從	-8183
平方呎	-8184
托勒密	-8185
搵唔到	-8186
東北邊	-8187
珠三角	-8188
1957	-8189
係土耳其	-8190
,1992	-8191
▁1978	-8192
▁呢個屋苑喺居者有其屋	-8193
係香港嘅一個居者有其屋屋苑	-8194
”,	-8195
▁雅	-8196
上陣	-8197
丹拿	-8198
企圖	-8199
修例	-8200
全新	-8201
公婆	-8202
冇野	-8203
反射	-8204
受損	-8205
含量	-8206
哈利	-8207
唔掂	-8208
嘅仔	-8209
嘅馬	-8210
地皮	-8211
埔寨	-8212
字有	-8213
摔角	-8214
文泰	-8215
最快	-8216
服役	-8217
步槍	-8218
武術	-8219
河邊	-8220
溫和	-8221
睇落	-8222
策劃	-8223
美式	-8224
自細	-8225
轉投	-8226
鍵盤	-8227
階層	-8228
5。。	-8229
世紀嘅	-8230
中西區	-8231
原居民	-8232
嘅元素	-8233
存在嘅	-8234
尤其喺	-8235
年落成	-8236
消防局	-8237
特色嘅	-8238
發生嘅	-8239
▁西班牙	-8240
收費區喺	-8241
星座之一	-8242
▁呢個節目	-8243
▁聽唔聽到	-8244
▁除此之外	-8245
▁列	-8246
▁相	-8247
▁門	-8248
一層	-8249
一柞	-8250
佢對	-8251
入嚟	-8252
分組	-8253
制嘅	-8254
南岸	-8255
又又	-8256
咁高	-8257
哈拉	-8258
單層	-8259
地形	-8260
山口	-8261
左個	-8262
廠商	-8263
我咪	-8264
效益	-8265
樓嘅	-8266
法嘅	-8267
由黃	-8268
磁場	-8269
禮堂	-8270
約瑟	-8271
鏡頭	-8272
開張	-8273
防守	-8274
電機	-8275
靈頓	-8276
▁德國	-8277
▁故事	-8278
㗎系嘛	-8279
一樣嘅	-8280
北京路	-8281
古老嘅	-8282
唔方便	-8283
嘅中心	-8284
好似有	-8285
打後衞	-8286
柬埔寨	-8287
淘汰賽	-8288
研究院	-8289
視星等	-8290
都係以	-8291
重慶市	-8292
個人專輯	-8293
側式月台	-8294
全國政協	-8295
票務設施	-8296
層樓嘅地下	-8297
教科文組織	-8298
▁祖	-8299
▁設	-8300
▁豐	-8301
一方	-8302
一面	-8303
位元	-8304
做完	-8305
允許	-8306
再加	-8307
剩低	-8308
原料	-8309
只能	-8310
同張	-8311
呢句	-8312
太過	-8313
學識	-8314
年改	-8315
成條	-8316
早上	-8317
晉級	-8318
會展	-8319
毒品	-8320
派人	-8321
清代	-8322
用得	-8323
由陳	-8324
發光	-8325
盆地	-8326
短暫	-8327
聞名	-8328
衰變	-8329
車尾	-8330
轉做	-8331
開車	-8332
防禦	-8333
領先	-8334
▁初期	-8335
任天堂	-8336
唔需要	-8337
基督徒	-8338
會出現	-8339
東南邊	-8340
梁振英	-8341
滿洲國	-8342
甚至連	-8343
發歌手	-8344
筲箕灣	-8345
紐約市	-8346
舞台劇	-8347
都唔使	-8348
▁喺美國	-8349
係廣州市	-8350
堅尼地城	-8351
成條馬路	-8352
新潟天鵝	-8353
效力過橫濱	-8354
:-	-8355
▁丁	-8356
▁合	-8357
▁城	-8358
一二	-8359
一旦	-8360
一省	-8361
但有	-8362
你有	-8363
信心	-8364
公平	-8365
分拆	-8366
創建	-8367
去搵	-8368
同三	-8369
同有	-8370
否認	-8371
咖喱	-8372
哥連	-8373
商標	-8374
啊系	-8375
嘅風	-8376
四世	-8377
報章	-8378
尊重	-8379
小龍	-8380
常數	-8381
弟子	-8382
恒生	-8383
播映	-8384
收埋	-8385
朝頭	-8386
歌迷	-8387
江湖	-8388
沙律	-8389
淪陷	-8390
減低	-8391
激進	-8392
獎嘅	-8393
總局	-8394
螺旋	-8395
要將	-8396
要要	-8397
請求	-8398
警署	-8399
轉型	-8400
迪生	-8401
重返	-8402
飛翔	-8403
龍崗	-8404
(14	-8405
亦係一	-8406
亦都會	-8407
係佢嘅	-8408
俱樂部	-8409
去果度	-8410
可能有	-8411
嘅特色	-8412
大約係	-8413
好多種	-8414
我以爲	-8415
播出嘅	-8416
效力緊	-8417
旅遊業	-8418
早期嘅	-8419
當中有	-8420
發展到	-8421
都冇乜	-8422
1948	-8423
▁哦咁啊	-8424
▁哦咁樣	-8425
高等法院	-8426
眾議院議員	-8427
維基媒體基金會	-8428
聯合國教科文組織	-8429
▁係中國廣東廣州嘅	-8430
▁施	-8431
▁與	-8432
亡國	-8433
人家	-8434
佢好	-8435
來做	-8436
傳出	-8437
兒島	-8438
兩地	-8439
再將	-8440
動員	-8441
同高	-8442
嘢玩	-8443
壽司	-8444
安德	-8445
定向	-8446
屋宇	-8447
巨基	-8448
巨大	-8449
巴勒	-8450
打交	-8451
明治	-8452
東華	-8453
檢測	-8454
歸類	-8455
窒下	-8456
結局	-8457
署長	-8458
良好	-8459
規矩	-8460
觀測	-8461
軟體	-8462
關東	-8463
隔住	-8464
▁中華	-8465
▁轄區	-8466
▁馬路	-8467
但最後	-8468
出版嘅	-8469
同佢講	-8470
同法國	-8471
命名為	-8472
嘅結構	-8473
如果有	-8474
幾點鐘	-8475
彌敦道	-8476
發電廠	-8477
神學院	-8478
紀錄片	-8479
而成嘅	-8480
造成嘅	-8481
都有啲	-8482
附近有	-8483
1912	-8484
▁呢樖嘢	-8485
喺呢個站	-8486
就係一個	-8487
廣州恆大	-8488
香港出世	-8489
係香港政府	-8490
嘅東西走向	-8491
有票務設施	-8492
歐洲國家盃	-8493
屬嘅常綠喬木	-8494
▁—	-8495
▁余	-8496
▁柳	-8497
▁玉	-8498
京城	-8499
佢咯	-8500
侵略	-8501
公爵	-8502
古巴	-8503
喺第	-8504
嘅好	-8505
型號	-8506
外圍	-8507
大宮	-8508
太守	-8509
封做	-8510
居屋	-8511
幕府	-8512
感受	-8513
我嘅	-8514
提琴	-8515
揸車	-8516
望遠	-8517
本質	-8518
殯儀	-8519
炮台	-8520
燈光	-8521
片段	-8522
特點	-8523
產量	-8524
界嘅	-8525
科嘅	-8526
粵文	-8527
終身	-8528
股權	-8529
英屬	-8530
語嘅	-8531
買入	-8532
趨向	-8533
長大	-8534
雞肉	-8535
類別	-8536
驗證	-8537
龍津	-8538
2.5	-8539
360	-8540
7。。	-8541
▁做過	-8542
▁點知	-8543
、10	-8544
保留咗	-8545
先至有	-8546
十二年	-8547
合併成	-8548
嘅一套	-8549
年成為	-8550
改名叫	-8551
流行曲	-8552
可以做藥	-8553
絕大多數	-8554
喺香港新界	-8555
打後衞位置	-8556
▁博	-8557
▁流	-8558
▁納	-8559
▁茶	-8560
▁超	-8561
之時	-8562
事後	-8563
以往	-8564
係做	-8565
加爾	-8566
化妝	-8567
去咯	-8568
口味	-8569
另有	-8570
塞車	-8571
專注	-8572
對比	-8573
崇拜	-8574
幹部	-8575
康城	-8576
提子	-8577
樓同	-8578
權威	-8579
歧視	-8580
燃料	-8581
生效	-8582
票價	-8583
站喺	-8584
紛紛	-8585
編寫	-8586
而來	-8587
血球	-8588
調節	-8589
質子	-8590
量子	-8591
釣魚	-8592
開出	-8593
閱讀	-8594
體字	-8595
鳥取	-8596
-。。	-8597
▁南京	-8598
中心嘅	-8599
主持係	-8600
二十八	-8601
公園嘅	-8602
分三神	-8603
加利福	-8604
嘅熱帶	-8605
好似好	-8606
想去邊	-8607
時間係	-8608
月正式	-8609
果邊啊	-8610
決定將	-8611
第十二	-8612
結他手	-8613
隻動物	-8614
馬克思	-8615
1936	-8616
1947	-8617
▁係一個	-8618
國際學校	-8619
對外開放	-8620
曾經做過	-8621
行政總裁	-8622
▁1956	-8623
▁1958	-8624
就係所謂嘅	-8625
普通話拼音	-8626
(2	-8627
▁學	-8628
▁甘	-8629
▁荷	-8630
▁袁	-8631
一城	-8632
但冇	-8633
係話	-8634
先鋒	-8635
台南	-8636
嘅波	-8637
失蹤	-8638
奇妙	-8639
感到	-8640
推理	-8641
搬走	-8642
政司	-8643
會令	-8644
木材	-8645
漩渦	-8646
熊貓	-8647
物資	-8648
生成	-8649
番茄	-8650
石門	-8651
禮物	-8652
草津	-8653
葡文	-8654
行李	-8655
規格	-8656
諷刺	-8657
護士	-8658
都以	-8659
開創	-8660
陳慧	-8661
難度	-8662
鬼佬	-8663
,11	-8664
中文名	-8665
乒乓波	-8666
加勒比	-8667
只係得	-8668
大概有	-8669
就變咗	-8670
朝頭早	-8671
演變成	-8672
猶太教	-8673
男藝員	-8674
發行嘅	-8675
禮拜日	-8676
範圍內	-8677
紀念館	-8678
結束後	-8679
開始咗	-8680
1953	-8681
▁...	-8682
▁呢間嘢	-8683
▁我而家	-8684
、、、、	-8685
一分為二	-8686
乒乓球檯	-8687
先至有得	-8688
公眾假期	-8689
好多人都	-8690
遊埠節目	-8691
喺中國廣東	-8692
▁圖	-8693
▁整	-8694
▁鳳	-8695
▁龐	-8696
一晚	-8697
並將	-8698
人用	-8699
係單	-8700
共識	-8701
出品	-8702
到底	-8703
剛果	-8704
半價	-8705
同個	-8706
同喺	-8707
命題	-8708
咁咁	-8709
咗兩	-8710
售票	-8711
嘅文	-8712
好啦	-8713
富山	-8714
廿二	-8715
復出	-8716
悉尼	-8717
新區	-8718
明白	-8719
時空	-8720
有住	-8721
框架	-8722
獨裁	-8723
由新	-8724
白馬	-8725
罷工	-8726
蒲崗	-8727
輸畀	-8728
近排	-8729
遮打	-8730
8。。	-8731
▁十二	-8732
下面嘅	-8733
出現過	-8734
原因係	-8735
可能性	-8736
嘅一部	-8737
嘅同時	-8738
國道嘅	-8739
執政黨	-8740
好細聲	-8741
工作者	-8742
常委會	-8743
攞嚟做	-8744
教育部	-8745
旅行社	-8746
細分做	-8747
▁不過喺	-8748
▁呢套戲	-8749
唯一一個	-8750
大分三神	-8751
奧林比安	-8752
最高法院	-8753
浸會大學	-8754
神經科學	-8755
香港總督	-8756
係香港一條	-8757
室內體育館	-8758
▁條路從南到北排	-8759
-3	-8760
▁億	-8761
▁司	-8762
一一	-8763
世上	-8764
以內	-8765
倉庫	-8766
六百	-8767
出戰	-8768
升做	-8769
半衰	-8770
呢日	-8771
地勢	-8772
基里	-8773
導體	-8774
干支	-8775
廿八	-8776
早年	-8777
明珠	-8778
時區	-8779
時速	-8780
月同	-8781
東漢	-8782
瓜灣	-8783
等陣	-8784
綫同	-8785
縣治	-8786
船塢	-8787
落後	-8788
送去	-8789
選美	-8790
青海	-8791
(;,	-8792
▁真係	-8793
中學讀	-8794
保守黨	-8795
喺大埔	-8796
多啦夢	-8797
幾多錢	-8798
廣州人	-8799
廣州城	-8800
標記位	-8801
版本嘅	-8802
由政府	-8803
製造廠	-8804
越秀山	-8805
中國政府	-8806
公共運輸	-8807
好多時都	-8808
畀人叫做	-8809
行政會議	-8810
以及七人足球場	-8811
康樂及文化事務署管理	-8812
(3	-8813
▁秋	-8814
、6	-8815
一幅	-8816
上到	-8817
五蚊	-8818
人才	-8819
伯來	-8820
係條	-8821
全身	-8822
南宋	-8823
召喚	-8824
啤牌	-8825
回家	-8826
士甸	-8827
廉政	-8828
排序	-8829
攻打	-8830
方程	-8831
果種	-8832
校服	-8833
河流	-8834
海水	-8835
火星	-8836
聖母	-8837
聽得	-8838
試圖	-8839
辯論	-8840
透明	-8841
造嘅	-8842
進士	-8843
過後	-8844
過濾	-8845
選秀	-8846
順便	-8847
頭尾	-8848
▁阿爾	-8849
嗰啲係	-8850
嘅球隊	-8851
子公司	-8852
就因為	-8853
我地去	-8854
攞冠軍	-8855
會見到	-8856
果啲人	-8857
法蘭克	-8858
3000	-8859
]]。。	-8860
先至改咗	-8861
拍電視劇	-8862
神經系統	-8863
被認為係	-8864
視星等係	-8865
20:30	-8866
▁香港政府	-8867
層樓嘅地下區域	-8868
▁隋	-8869
▁麻	-8870
》)	-8871
一輪	-8872
並非	-8873
之父	-8874
九江	-8875
五世	-8876
人手	-8877
作嘅	-8878
佢將	-8879
係響	-8880
信任	-8881
剩返	-8882
喺前	-8883
基斯	-8884
實體	-8885
尼治	-8886
巴塞	-8887
幾條	-8888
打贏	-8889
望落	-8890
李克	-8891
歐亞	-8892
爾本	-8893
片嘅	-8894
登基	-8895
筆名	-8896
簽咗	-8897
縣城	-8898
落來	-8899
處境	-8900
衍新	-8901
西歐	-8902
車費	-8903
軍艦	-8904
辦嘅	-8905
部件	-8906
醜聞	-8907
開口	-8908
雨林	-8909
面試	-8910
鹹水	-8911
900	-8912
▁台灣	-8913
▁咁我	-8914
▁西北	-8915
▁關於	-8916
』。。	-8917
億港元	-8918
副主任	-8919
同國際	-8920
咁多人	-8921
唔應該	-8922
嗰陣會	-8923
嘅交通	-8924
嘅生物	-8925
四十五	-8926
好似系	-8927
望遠鏡	-8928
牛頭角	-8929
睇得到	-8930
第三季	-8931
車路士	-8932
都冇帶	-8933
鹿兒島	-8934
▁喺呢個	-8935
世界紀錄	-8936
全體會議	-8937
冇休息室	-8938
巴士服務	-8939
常住人口	-8940
草津溫泉	-8941
黑龍江省	-8942
係中國河南	-8943
係香港嘅山	-8944
位置喺越秀區	-8945
集團有限公司	-8946
交通事務局局長	-8947
▁蘭	-8948
三箭	-8949
佔據	-8950
停產	-8951
兩層	-8952
公尺	-8953
六點	-8954
史密	-8955
嚟行	-8956
地係	-8957
安置	-8958
寶安	-8959
州府	-8960
幕門	-8961
度啊	-8962
怪獸	-8963
愛媛	-8964
成半	-8965
拍卡	-8966
煲湯	-8967
研製	-8968
答案	-8969
筷子	-8970
羅曼	-8971
落水	-8972
課題	-8973
讀完	-8974
贏到	-8975
起到	-8976
輕鬆	-8977
通信	-8978
陽江	-8979
青銅	-8980
音速	-8981
預期	-8982
▁80	-8983
▁亞洲	-8984
南北朝	-8985
印度洋	-8986
可以有	-8987
嘅乘客	-8988
嘅歌曲	-8989
嘅理論	-8990
型巴士	-8991
就有得	-8992
州首府	-8993
年啟用	-8994
恢復返	-8995
林衍新	-8996
果啲咩	-8997
比較大	-8998
男朋友	-8999
網球場	-9000
而佢嘅	-9001
負責人	-9002
領導嘅	-9003
1927	-9004
▁大清時	-9005
但係因為	-9006
同埋佢嘅	-9007
而家而家	-9008
係中國雲南	-9009
人係日本足球員	-9010
(1	-9011
▁發	-9012
、-	-9013
一批	-9014
世子	-9015
二千	-9016
伯特	-9017
佈局	-9018
典型	-9019
出土	-9020
劉邦	-9021
向下	-9022
咩事	-9023
啲水	-9024
夫婦	-9025
岡山	-9026
席位	-9027
幼蟲	-9028
廿幾	-9029
徹底	-9030
書店	-9031
書籍	-9032
月尾	-9033
波特	-9034
洗手	-9035
流量	-9036
混血	-9037
渤海	-9038
潮流	-9039
用法	-9040
突厥	-9041
籌備	-9042
終止	-9043
線上	-9044
總值	-9045
聯軍	-9046
行山	-9047
行道	-9048
見佢	-9049
說文	-9050
車票	-9051
鄧氏	-9052
酒精	-9053
開展	-9054
陷入	-9055
隻船	-9056
鳥類	-9057
101	-9058
▁中央	-9059
▁喺佢	-9060
▁比如	-9061
最先喺	-9062
第二位	-9063
老人家	-9064
落嚟嘅	-9065
轄下嘅	-9066
▁400	-9067
伊利沙伯	-9068
例子說明	-9069
保加利亞	-9070
教育學院	-9071
,1960	-9072
▁1976	-9073
係馬來西亞	-9074
第一次世界大戰	-9075
一本	-9076
三人	-9077
三分	-9078
上半	-9079
中區	-9080
亞太	-9081
你啲	-9082
俾佢	-9083
又得	-9084
反切	-9085
向日	-9086
啊喂	-9087
嘅紅	-9088
嘅金	-9089
嘉禾	-9090
密集	-9091
差別	-9092
年憑	-9093
所需	-9094
拍賣	-9095
搭車	-9096
新興	-9097
景嶺	-9098
景灣	-9099
樓宇	-9100
武俠	-9101
每一	-9102
津貼	-9103
海豹	-9104
瀨那	-9105
疫苗	-9106
至到	-9107
航天	-9108
處嘅	-9109
蝸牛	-9110
西門	-9111
諗下	-9112
變形	-9113
起飛	-9114
重好	-9115
餅帶	-9116
9。。	-9117
▁最終	-9118
你自己	-9119
佢嗰隻	-9120
係源自	-9121
其中有	-9122
到依家	-9123
去先至	-9124
呢啲嘢	-9125
喺個海	-9126
大酒店	-9127
工程喺	-9128
市出世	-9129
式建築	-9130
我都唔	-9131
月開花	-9132
第三次	-9133
經濟體	-9134
而成為	-9135
都已經	-9136
電影同	-9137
體育會	-9138
係香港島	-9139
去過邊度	-9140
嘅機會率	-9141
工作人員	-9142
師範大學	-9143
澳門巴士	-9144
納粹德國	-9145
冇幾遠就係	-9146
逃犯條例修訂	-9147
電影金像獎最佳	-9148
▁埃	-9149
、7	-9150
上層	-9151
你重	-9152
傳送	-9153
克斯	-9154
加法	-9155
勁嘅	-9156
卦係	-9157
可樂	-9158
命運	-9159
唔做	-9160
啱嘅	-9161
四方	-9162
四種	-9163
奈良	-9164
學說	-9165
審裁	-9166
帶嘅	-9167
幻想	-9168
幾錢	-9169
形勢	-9170
得多	-9171
得獎	-9172
情感	-9173
打獵	-9174
揸住	-9175
文同	-9176
最細	-9177
栃木	-9178
氣氛	-9179
注音	-9180
漢朝	-9181
獎金	-9182
維埃	-9183
羅拔	-9184
而定	-9185
製成	-9186
貫通	-9187
身長	-9188
造型	-9189
造船	-9190
都被	-9191
關卡	-9192
青洲	-9193
香料	-9194
黑沙	-9195
▁系系	-9196
之不過	-9197
亦做過	-9198
係國際	-9199
同交通	-9200
同廣州	-9201
喺唔同	-9202
喺歐洲	-9203
嗰度嘅	-9204
嘅故事	-9205
多媒體	-9206
就唔會	-9207
有啲似	-9208
本來係	-9209
灣泳灘	-9210
調景嶺	-9211
都唔係	-9212
1937	-9213
化學反應	-9214
原子序號	-9215
大宮松鼠	-9216
好出名嘅	-9217
年開始做	-9218
方案入面	-9219
東京綠茵	-9220
自動櫃員	-9221
香港冬天	-9222
香港法例	-9223
香港電影	-9224
客務中心同	-9225
▁主	-9226
▁井	-9227
▁包	-9228
▁岩	-9229
▁錢	-9230
一片	-9231
七十	-9232
代言	-9233
侵犯	-9234
光明	-9235
內有	-9236
協定	-9237
南唐	-9238
去囖	-9239
呢份	-9240
啊冇	-9241
喇沙	-9242
喼去	-9243
嗮啲	-9244
嘅天	-9245
嚹喎	-9246
城際	-9247
大慶	-9248
女皇	-9249
如今	-9250
對付	-9251
山谷	-9252
忌廉	-9253
拍咗	-9254
攞返	-9255
晚上	-9256
次數	-9257
武昌	-9258
沖涼	-9259
洪水	-9260
病嘅	-9261
百越	-9262
相應	-9263
睇住	-9264
睇啱	-9265
硤尾	-9266
神聖	-9267
福島	-9268
科舉	-9269
秦國	-9270
腳尖	-9271
萬張	-9272
見嘅	-9273
話題	-9274
諧音	-9275
識講	-9276
象棋	-9277
賣畀	-9278
踏入	-9279
運營	-9280
重用	-9281
開拓	-9282
頭路	-9283
顧客	-9284
顯著	-9285
首領	-9286
體現	-9287
▁冇喎	-9288
▁噉咪	-9289
一定包	-9290
七八月	-9291
乜嘢啊	-9292
亞運會	-9293
人講呢	-9294
十一年	-9295
哩個去	-9296
啊真系	-9297
嘅一段	-9298
大城市	-9299
完整嘅	-9300
年巴士	-9301
指嘅係	-9302
有問題	-9303
淡季去	-9304
清真寺	-9305
第十三	-9306
試下喎	-9307
進行咗	-9308
都會用	-9309
間公司	-9310
▁:。。	-9311
▁咪係囖	-9312
▁唔係啊	-9313
▁噉放假	-9314
其中地下	-9315
博士學位	-9316
即係點啊	-9317
喺中國嘅	-9318
嗰啲嗰啲	-9319
嗰啲嘢囖	-9320
嗰啲嚹喎	-9321
四十幾度	-9322
地鐵公司	-9323
好熱𡃉喎	-9324
廣島三箭	-9325
未試過喎	-9326
直程可以	-9327
省一座城	-9328
經濟學家	-9329
聽人講呢	-9330
聽到聽到	-9331
選舉入面	-9332
都係一樣	-9333
▁我唔知𡃉	-9334
奧斯卡金像	-9335
導遊都冇帶	-9336
非牟利組織	-9337
海洋公園嗰啲	-9338
冬季奧林匹克運動會	-9339
▁係中國廣東廣州嘅一間	-9340
04	-9341
▁ô	-9342
▁毛	-9343
▁返	-9344
▁阮	-9345
㗎我	-9346
一首	-9347
八點	-9348
前任	-9349
半徑	-9350
協作	-9351
協商	-9352
去啦	-9353
合金	-9354
咁滯	-9355
喜愛	-9356
單元	-9357
客人	-9358
延遲	-9359
志偉	-9360
手續	-9361
提交	-9362
搜尋	-9363
明代	-9364
普查	-9365
景觀	-9366
沿用	-9367
用作	-9368
種子	-9369
經費	-9370
考察	-9371
聖公	-9372
舊名	-9373
舞臺	-9374
街嘅	-9375
評審	-9376
超市	-9377
辛亥	-9378
遵守	-9379
長者	-9380
開平	-9381
▁事發	-9382
▁重慶	-9383
低氣壓	-9384
八十八	-9385
喺而家	-9386
墨爾本	-9387
大學讀	-9388
曾經有	-9389
歲開始	-9390
而如果	-9391
西北邊	-9392
間學校	-9393
黨主席	-9394
▁英文叫	-9395
一個星期	-9396
上市公司	-9397
拍過唔少	-9398
號綫一個	-9399
,1986	-9400
迪士尼樂園	-9401
廣東省廣州市	-9402
亞歷山大丹尼士	-9403
("	-9404
▁叫	-9405
▁士	-9406
▁書	-9407
▁洛	-9408
▁索	-9409
▁註	-9410
▁邊	-9411
仲係	-9412
係小	-9413
個字	-9414
傢俬	-9415
入讀	-9416
出行	-9417
合格	-9418
嘅細	-9419
嚟食	-9420
士蘭	-9421
大仔	-9422
大王	-9423
奴隸	-9424
實踐	-9425
局嘅	-9426
山水	-9427
左啲	-9428
干諾	-9429
恩斯	-9430
懲罰	-9431
打波	-9432
招牌	-9433
括號	-9434
整合	-9435
斯達	-9436
日耳	-9437
果部	-9438
格鬥	-9439
氨基	-9440
海口	-9441
淑儀	-9442
深度	-9443
滅絕	-9444
王室	-9445
產物	-9446
田山	-9447
神父	-9448
秘魯	-9449
籍貫	-9450
統籌	-9451
聚會	-9452
自立	-9453
蚊啊	-9454
說話	-9455
輔音	-9456
陣線	-9457
陳述	-9458
(13	-9459
▁60	-9460
▁代表	-9461
▁利用	-9462
▁嶺南	-9463
一定嘅	-9464
係英倫	-9465
典型嘅	-9466
去唔去	-9467
台北市	-9468
嘅系統	-9469
嘅身份	-9470
客家話	-9471
就係指	-9472
成員國	-9473
我自己	-9474
我諗住	-9475
由美國	-9476
私家車	-9477
西邊從	-9478
邊個啊	-9479
阿仙奴	-9480
個名嚟自	-9481
可唔可以	-9482
呢間學校	-9483
唔同嘅係	-9484
港鐵公司	-9485
萬平方公里	-9486
▁係拉丁字母	-9487
中文維基百科	-9488
係中國廣東廣州一	-9489
▁斯	-9490
、「	-9491
㗎你	-9492
一縣	-9493
人有	-9494
個鎮	-9495
北伐	-9496
同白	-9497
唔起	-9498
啤梨	-9499
嘅聲	-9500
嚟咗	-9501
回收	-9502
塞拜	-9503
外形	-9504
大洋	-9505
奶茶	-9506
安門	-9507
宣告	-9508
小平	-9509
平地	-9510
平板	-9511
應承	-9512
戰艦	-9513
收縮	-9514
末期	-9515
楚國	-9516
民選	-9517
波音	-9518
發源	-9519
簡寫	-9520
繁榮	-9521
罰錢	-9522
裁定	-9523
觀賞	-9524
話事	-9525
誤差	-9526
足總	-9527
隨便	-9528
雖則	-9529
雲山	-9530
零件	-9531
▁一啲	-9532
▁作者	-9533
▁加上	-9534
▁每個	-9535
▁邊度	-9536
一方面	-9537
佢哋會	-9538
做導演	-9539
同電影	-9540
喺澳門	-9541
嘅一場	-9542
嘅方向	-9543
在內嘅	-9544
塞拜疆	-9545
好快就	-9546
年代嘅	-9547
我都冇	-9548
房地產	-9549
推出咗	-9550
會令到	-9551
東涌綫	-9552
淨係得	-9553
發源自	-9554
研究嘅	-9555
荔枝灣	-9556
都幾好	-9557
麥當勞	-9558
▁系啊佢	-9559
代表香港	-9560
六十分鐘	-9561
提供服務	-9562
法定古蹟	-9563
相比之下	-9564
補位歌手	-9565
轉乘時間	-9566
▁1937	-9567
▁1972	-9568
▁呢個站喺	-9569
製作嘅時裝	-9570
證券交易所	-9571
屆中央委員會	-9572
香港中文大學	-9573
介係日本足球員	-9574
)-	-9575
▁崇	-9576
▁溫	-9577
▁皮	-9578
一角	-9579
七日	-9580
二〇	-9581
人心	-9582
係海	-9583
係長	-9584
升到	-9585
南寧	-9586
唔貴	-9587
喺同	-9588
嘅石	-9589
嘉樂	-9590
地段	-9591
宮廷	-9592
專員	-9593
局面	-9594
山腳	-9595
平臺	-9596
志明	-9597
戶口	-9598
技法	-9599
搞出	-9600
東吳	-9601
棕櫚	-9602
治理	-9603
泥涌	-9604
界限	-9605
異常	-9606
總數	-9607
請咗	-9608
輿論	-9609
還原	-9610
飲品	-9611
魯士	-9612
黃沙	-9613
▁光緒	-9614
▁呢套	-9615
「」(	-9616
任總統	-9617
即係有	-9618
可以畀	-9619
喺好多	-9620
嘅地名	-9621
嘅知識	-9622
將自己	-9623
愛德華	-9624
改咗名	-9625
方向嘅	-9626
果個咩	-9627
睇下佢	-9628
第一代	-9629
第十一	-9630
紀念日	-9631
西去到	-9632
討論區	-9633
談節目	-9634
都係啲	-9635
都唔系	-9636
("")	-9637
取消優惠	-9638
喺埋一齊	-9639
廣州地區	-9640
德島漩渦	-9641
正式開放	-9642
羅馬尼亞	-9643
華南地區	-9644
鐵路車站	-9645
▁1940	-9646
普通澳門通	-9647
澳門通拍卡	-9648
中華民國政府	-9649
澳門線轉氹仔	-9650
自助服務設施	-9651
一直去到東邊嘅	-9652
中國人民解放軍	-9653
▁伯	-9654
▁帕	-9655
▁渡	-9656
▁綠	-9657
》「	-9658
一郎	-9659
佔有	-9660
係李	-9661
南下	-9662
各項	-9663
啟發	-9664
大門	-9665
學期	-9666
就做	-9667
帝廟	-9668
得意	-9669
打橫	-9670
指控	-9671
排灣	-9672
接壤	-9673
揭發	-9674
新竹	-9675
方嘅	-9676
星光	-9677
春節	-9678
時有	-9679
月亮	-9680
洋行	-9681
浪潮	-9682
煮食	-9683
獎勵	-9684
珠澳	-9685
節點	-9686
精英	-9687
組建	-9688
蒙特	-9689
諸如	-9690
買啊	-9691
轉為	-9692
適當	-9693
避風	-9694
部頭	-9695
配料	-9696
附加	-9697
雙手	-9698
面前	-9699
面向	-9700
(10	-9701
▁深圳	-9702
▁現今	-9703
▁相傳	-9704
▁電腦	-9705
佢老豆	-9706
出世嘅	-9707
反修例	-9708
同台灣	-9709
嘅成績	-9710
執教過	-9711
女朋友	-9712
好多次	-9713
年上映	-9714
用呢個	-9715
範圍劃	-9716
號晚黑	-9717
1934	-9718
1938	-9719
▁之後佢	-9720
▁大部分	-9721
▁尤其係	-9722
中學畢業	-9723
學院畢業	-9724
幾時得閒	-9725
民意調查	-9726
綫嘅車站	-9727
係中國山東	-9728
管理委員會	-9729
眾議院議員總	-9730
▁仁	-9731
▁商	-9732
▁縣	-9733
▁豬	-9734
一島	-9735
丁堡	-9736
九號	-9737
以便	-9738
係兩	-9739
係正	-9740
傳道	-9741
光復	-9742
六世	-9743
凌日	-9744
分界	-9745
創業	-9746
卡爾	-9747
去下	-9748
古仔	-9749
合埋	-9750
同外	-9751
唔返	-9752
啲車	-9753
喺嗰	-9754
嘅咩	-9755
嚟起	-9756
國號	-9757
城中	-9758
培育	-9759
基隆	-9760
增設	-9761
士街	-9762
大坑	-9763
尊稱	-9764
屬第	-9765
廣大	-9766
成名	-9767
成果	-9768
戰場	-9769
揚州	-9770
日出	-9771
椰子	-9772
沿住	-9773
現有	-9774
直線	-9775
直隸	-9776
米爾	-9777
精確	-9778
糖水	-9779
耶路	-9780
肝炎	-9781
詞嘅	-9782
跳水	-9783
通商	-9784
長野	-9785
降落	-9786
陸上	-9787
雀鳥	-9788
音符	-9789
飲酒	-9790
118	-9791
▁原先	-9792
▁啱啱	-9793
▁喂你	-9794
一帶嘅	-9795
令佢哋	-9796
佢就係	-9797
個鐘頭	-9798
南海區	-9799
向日葵	-9800
巴士喺	-9801
思想家	-9802
推出嘅	-9803
救護車	-9804
書面語	-9805
甚至係	-9806
甚至重	-9807
發明咗	-9808
第二輯	-9809
至尊寶	-9810
號晏晝	-9811
話自己	-9812
馬英九	-9813
喺黃埔區	-9814
金融中心	-9815
電視遊戲	-9816
,1984	-9817
</>。。	-9818
嘅南北走向	-9819
▁畀	-9820
上畫	-9821
享受	-9822
人會	-9823
份子	-9824
兩千	-9825
八十	-9826
前進	-9827
加多	-9828
印歐	-9829
口音	-9830
各區	-9831
同類	-9832
咯喔	-9833
唔計	-9834
嘅錢	-9835
器嘅	-9836
嚟計	-9837
坐標	-9838
天星	-9839
奇怪	-9840
實數	-9841
就俾	-9842
差佬	-9843
巴利	-9844
後邊	-9845
描寫	-9846
東海	-9847
河嘅	-9848
狹義	-9849
率領	-9850
現金	-9851
稱爲	-9852
立憲	-9853
管區	-9854
納入	-9855
而將	-9856
職責	-9857
腳位	-9858
花瓣	-9859
裝咗	-9860
變相	-9861
負面	-9862
連戰	-9863
遊記	-9864
道歉	-9865
郵輪	-9866
重播	-9867
青島	-9868
體型	-9869
170	-9870
▁但喺	-9871
▁果度	-9872
三個月	-9873
中國海	-9874
之前係	-9875
作品有	-9876
個品種	-9877
做皇帝	-9878
動植物	-9879
呢間嘢	-9880
嘅公司	-9881
嘅大細	-9882
大會堂	-9883
好唔同	-9884
屆選舉	-9885
成立後	-9886
星期四	-9887
村入面	-9888
理事會	-9889
篇小說	-9890
都一樣	-9891
鄭秀文	-9892
1921	-9893
交通意外	-9894
我都唔知	-9895
日治時期	-9896
有唔同嘅	-9897
有軌電車	-9898
社會科學	-9899
23:30	-9900
▁1966	-9901
▁1968	-9902
系啊系啊系啊	-9903
超級足球聯賽	-9904
屆日本眾議院議員總	-9905
歸康樂及文化事務署管	-9906
_4	-9907
▁區	-9908
▁油	-9909
▁牧	-9910
《"	-9911
」-	-9912
事變	-9913
二人	-9914
仲系	-9915
佢啦	-9916
佢響	-9917
來到	-9918
做啲	-9919
先咯	-9920
出左	-9921
分兩	-9922
初年	-9923
力同	-9924
加索	-9925
北宋	-9926
唔算	-9927
啦喔	-9928
大雄	-9929
寫真	-9930
寶琳	-9931
就到	-9932
屬地	-9933
幾點	-9934
情歌	-9935
打低	-9936
拓展	-9937
撒冷	-9938
改進	-9939
昆明	-9940
時尚	-9941
期望	-9942
染色	-9943
樹枝	-9944
港區	-9945
由林	-9946
福路	-9947
結咗	-9948
義工	-9949
老頭	-9950
而冇	-9951
聰明	-9952
蒸汽	-9953
薩斯	-9954
解體	-9955
言語	-9956
話有	-9957
貴嘅	-9958
賽區	-9959
邵氏	-9960
隻腳	-9961
骨文	-9962
鯊魚	-9963
,14	-9964
;。。	-9965
▁最早	-9966
▁都好	-9967
一條路	-9968
中世紀	-9969
十三年	-9970
原本嘅	-9971
古巨基	-9972
喺每年	-9973
外國人	-9974
好聲音	-9975
年到前	-9976
建立嘅	-9977
曾經同	-9978
有需要	-9979
網規劃	-9980
羅馬字	-9981
苗栗縣	-9982
輸入法	-9983
黃竹坑	-9984
▁系咪啊	-9985
之後先至	-9986
國民教育	-9987
成為一個	-9988
星期一至	-9989
清水心跳	-9990
耶路撒冷	-9991
聽唔到啊	-9992
足球總會	-9993
室內體育館之一	-9994
日本足球代表隊	-9995
香港室內體育館之一	-9996
苑係香港嘅一個居者有其屋屋苑	-9997
3.	-9998
;「	-9999
ов	-10000
▁深	-10001
▁菲	-10002
、8	-10003
不能	-10004
丫島	-10005
亞馬	-10006
係各	-10007
做好	-10008
公理	-10009
六甲	-10010
原定	-10011
合一	-10012
吉爾	-10013
同上	-10014
大地	-10015
對聯	-10016
少咗	-10017
局部	-10018
巴馬	-10019
干預	-10020
廣深	-10021
恩來	-10022
攻入	-10023
村落	-10024
格仔	-10025
樣本	-10026
歌劇	-10027
正義	-10028
生於	-10029
禁區	-10030
種植	-10031
緯度	-10032
縮短	-10033
美麗	-10034
考入	-10035
而俾	-10036
航運	-10037
芝加	-10038
被判	-10039
趨勢	-10040
返個	-10041
違法	-10042
配套	-10043
金門	-10044
開支	-10045
陰陽	-10046
體操	-10047
魚類	-10048
▁家陣	-10049
▁自由	-10050
▁證明	-10051
不過喺	-10052
係希臘	-10053
個故仔	-10054
冇可能	-10055
到時候	-10056
十四年	-10057
咁樣咯	-10058
咪得咯	-10059
唔滿意	-10060
喺月台	-10061
嘅作用	-10062
嘅技術	-10063
幾個人	-10064
慢慢噉	-10065
最好嘅	-10066
有一啲	-10067
有部分	-10068
步行街	-10069
歲嗰陣	-10070
深圳市	-10071
湖公園	-10072
用到嘅	-10073
科動物	-10074
諸葛亮	-10075
部電影	-10076
都有得	-10077
類似嘅	-10078
▁呢條路	-10079
呢個問題	-10080
喺大倫敦	-10081
學士學位	-10082
專門研究	-10083
州一個縣	-10084
脊椎動物	-10085
自動販賣	-10086
附近範圍劃	-10087
馬來王豬籠草	-10088
客務中心同商鋪	-10089
係英國倫敦地下鐵	-10090
▁搵	-10091
▁晉	-10092
▁翠	-10093
▁道	-10094
三院	-10095
上車	-10096
五人	-10097
佛羅	-10098
作咗	-10099
使者	-10100
信義	-10101
個係	-10102
南亞	-10103
同王	-10104
堆填	-10105
塔爾	-10106
子弟	-10107
對立	-10108
左手	-10109
差距	-10110
差館	-10111
廢咗	-10112
急救	-10113
憶蓮	-10114
搜救	-10115
教省	-10116
教義	-10117
有份	-10118
架配	-10119
欽州	-10120
歐元	-10121
母嬰	-10122
河道	-10123
病例	-10124
石屎	-10125
確實	-10126
種嘅	-10127
童星	-10128
考成	-10129
艷芳	-10130
蔭權	-10131
蜀漢	-10132
血液	-10133
講得	-10134
跌咗	-10135
轉播	-10136
里尼	-10137
重力	-10138
鋼鐵	-10139
鞏固	-10140
默德	-10141
點數	-10142
▁土衞	-10143
一個島	-10144
一樣嘢	-10145
佢因為	-10146
係全球	-10147
呢三個	-10148
咗佢嘅	-10149
喺法國	-10150
因爲佢	-10151
域多利	-10152
大概係	-10153
小朋友	-10154
就得啦	-10155
愛迪生	-10156
我聽到	-10157
拍電影	-10158
搭飛機	-10159
整咗個	-10160
明顯嘅	-10161
江蘇省	-10162
生意人	-10163
白色嘅	-10164
站入面	-10165
第一大	-10166
英文嘅	-10167
蘇維埃	-10168
響澳門	-10169
▁加拿大	-10170
九龍半島	-10171
佔地面積	-10172
巴士路線	-10173
月台幕門	-10174
有好多人	-10175
歌唱比賽	-10176
立法委員	-10177
議會選舉	-10178
都有好多	-10179
電視頻道	-10180
▁1973	-10181
係中國內地	-10182
號開始逢禮拜	-10183
屆香港區議會選舉	-10184
▁官	-10185
▁岡	-10186
▁常	-10187
▁這	-10188
▁陶	-10189
並未	-10190
你呢	-10191
你哋	-10192
依據	-10193
係畀	-10194
保健	-10195
修讀	-10196
內外	-10197
全職	-10198
別克	-10199
叛亂	-10200
否則	-10201
品質	-10202
嗰段	-10203
壟斷	-10204
大理	-10205
展出	-10206
巨星	-10207
巴斯	-10208
布吉	-10209
後備	-10210
從來	-10211
悲劇	-10212
悼念	-10213
揸拍	-10214
攞去	-10215
是為	-10216
望到	-10217
概率	-10218
歷代	-10219
死因	-10220
汪峰	-10221
洗衫	-10222
火炬	-10223
童話	-10224
纜車	-10225
茶葉	-10226
衛隊	-10227
身分	-10228
進口	-10229
金錢	-10230
馬匹	-10231
鱲角	-10232
▁早喺	-10233
亦成為	-10234
佢哋啲	-10235
係亞洲	-10236
係基於	-10237
兩公婆	-10238
其他嘅	-10239
出咗名	-10240
命名嘅	-10241
嘅資料	-10242
因為噉	-10243
城市嘅	-10244
基本嘅	-10245
場比賽	-10246
大道北	-10247
好似啲	-10248
就成為	-10249
新世界	-10250
殯儀館	-10251
田山葉	-10252
真正嘅	-10253
第一隻	-10254
精神病	-10255
總冠軍	-10256
西南到	-10257
電影節	-10258
高雄市	-10259
個研究者	-10260
入面嘅第	-10261
嘅一個州	-10262
川崎前鋒	-10263
磐田山葉	-10264
站可以係	-10265
華倫西亞	-10266
下轄嘅一個	-10267
界功能界別	-10268
號線一個站	-10269
▁轄區總面積	-10270
平方公里咁大	-10271
附近範圍劃咗入	-10272
▁咸	-10273
▁爾	-10274
㗎佢	-10275
上山	-10276
上游	-10277
五千	-10278
五號	-10279
低溫	-10280
係繼	-10281
傳承	-10282
內瑞	-10283
凡係	-10284
出到	-10285
出租	-10286
南便	-10287
唐詩	-10288
唔止	-10289
在內	-10290
好彩	-10291
學問	-10292
家吓	-10293
年先	-10294
座堂	-10295
戀愛	-10296
提醒	-10297
星球	-10298
有名	-10299
本人	-10300
東門	-10301
條線	-10302
業餘	-10303
此外	-10304
源頭	-10305
牛津	-10306
生理	-10307
目嘅	-10308
相近	-10309
省係	-10310
破產	-10311
紅鑽	-10312
而起	-10313
製片	-10314
許可	-10315
話咗	-10316
身嘅	-10317
近似	-10318
都叫	-10319
金星	-10320
鐘樓	-10321
雀仔	-10322
驚悚	-10323
"",	-10324
▁富豪	-10325
▁我知	-10326
▁田中	-10327
三元里	-10328
佛山市	-10329
係退役	-10330
內瑞拉	-10331
啊系嘛	-10332
嘅動作	-10333
嘅學校	-10334
就用咗	-10335
希伯來	-10336
引起嘅	-10337
時間嘅	-10338
有能力	-10339
水電費	-10340
片假名	-10341
突然間	-10342
芝加哥	-10343
豐富嘅	-10344
重包括	-10345
領事館	-10346
高峰期	-10347
▁俄羅斯	-10348
▁而呢個	-10349
全部都係	-10350
嘅一個區	-10351
國會議員	-10352
委內瑞拉	-10353
星期六日	-10354
最常見嘅	-10355
東北走向	-10356
柏太陽神	-10357
生產總值	-10358
聯邦管區	-10359
▁1920	-10360
▁1975	-10361
兒童遊樂場	-10362
廿一世紀初	-10363
日本氣象廳	-10364
節目主持人	-10365
▁聽唔聽到啊	-10366
一間航空公司	-10367
位置喺荔灣區	-10368
!」	-10369
на	-10370
▁咦	-10371
▁碧	-10372
▁鶴	-10373
一鎮	-10374
一項	-10375
三四	-10376
上同	-10377
不丹	-10378
九個	-10379
乾燥	-10380
儒家	-10381
免疫	-10382
兩部	-10383
共享	-10384
出動	-10385
分手	-10386
列顛	-10387
加以	-10388
反感	-10389
古裝	-10390
咩咯	-10391
啊要	-10392
單嘢	-10393
嘅熱	-10394
因病	-10395
大宋	-10396
好咯	-10397
安納	-10398
官府	-10399
客房	-10400
家輝	-10401
封為	-10402
層係	-10403
慾望	-10404
旋律	-10405
棒球	-10406
母喺	-10407
民用	-10408
注重	-10409
派系	-10410
清華	-10411
溫帶	-10412
爪哇	-10413
社工	-10414
莫夫	-10415
軍團	-10416
送氣	-10417
里約	-10418
除非	-10419
頸鹿	-10420
▁唔好	-10421
企業家	-10422
前成員	-10423
包含咗	-10424
化學家	-10425
十三行	-10426
半衰期	-10427
同好多	-10428
咗唔少	-10429
就系咯	-10430
年做到	-10431
我我我	-10432
有冇去	-10433
發動機	-10434
真系啊	-10435
罕默德	-10436
荃灣綫	-10437
西鐵綫	-10438
警務處	-10439
返嚟啊	-10440
遊戲機	-10441
體中文	-10442
1500	-10443
中國國家	-10444
呢個概念	-10445
塞阿拉州	-10446
東南走向	-10447
第個名係	-10448
紅十字會	-10449
經濟發展	-10450
都有唔同	-10451
,1985	-10452
12:00	-10453
▁1938	-10454
係中國山西	-10455
嘅一粒恆星	-10456
日本足球員	-10457
愛爾蘭蓋爾文	-10458
號香港時間逢禮拜	-10459
,-	-10460
-6	-10461
<>	-10462
?」	-10463
▁彩	-10464
▁簡	-10465
一至	-10466
不是	-10467
中期	-10468
事先	-10469
享有	-10470
住你	-10471
作物	-10472
依照	-10473
係為	-10474
其頓	-10475
出於	-10476
出選	-10477
叫法	-10478
史記	-10479
唔大	-10480
啊睇	-10481
啲錢	-10482
國軍	-10483
大成	-10484
夫子	-10485
如何	-10486
威龍	-10487
就嚟	-10488
干擾	-10489
幾位	-10490
廣佛	-10491
後代	-10492
應對	-10493
手下	-10494
拉圭	-10495
拯救	-10496
族嘅	-10497
星星	-10498
替代	-10499
有權	-10500
浸信	-10501
無咗	-10502
爾特	-10503
疏散	-10504
發酵	-10505
硬件	-10506
絲綢	-10507
罪名	-10508
行得	-10509
西環	-10510
診所	-10511
詞語	-10512
諗頭	-10513
警隊	-10514
讀緊	-10515
豪華	-10516
過度	-10517
選為	-10518
陵蘭	-10519
——《	-10520
▁一百	-10521
▁今次	-10522
▁佐藤	-10523
▁反正	-10524
▁古時	-10525
▁咁佢	-10526
三個人	-10527
便利店	-10528
係一座	-10529
係一類	-10530
傳染病	-10531
反對派	-10532
呢本書	-10533
喺網上	-10534
嘅名義	-10535
嘅首都	-10536
年人口	-10537
文化同	-10538
星期二	-10539
歐洲人	-10540
番禺縣	-10541
當地人	-10542
董建華	-10543
蘋果日	-10544
車身嘅	-10545
通常都	-10546
開始用	-10547
1928	-10548
▁由於佢	-10549
畀乘客用	-10550
▁1948	-10551
藝員訓練班	-10552
公共運輸交匯處	-10553
係香港電視廣播有限公司嘅	-10554
(5	-10555
▁回	-10556
▁班	-10557
▁粵	-10558
一手	-10559
三文	-10560
三水	-10561
人做	-10562
傳輸	-10563
出演	-10564
分行	-10565
到啊	-10566
南美	-10567
口頭	-10568
吉克	-10569
同期	-10570
唔中	-10571
啊唉	-10572
固體	-10573
圓柱	-10574
大公	-10575
天台	-10576
寬頻	-10577
封建	-10578
差啲	-10579
戰亂	-10580
推斷	-10581
提取	-10582
提示	-10583
敘事	-10584
整理	-10585
新教	-10586
暗示	-10587
暴風	-10588
殺手	-10589
母親	-10590
油田	-10591
沿江	-10592
注入	-10593
深遠	-10594
港府	-10595
災害	-10596
為一	-10597
無咎	-10598
煤氣	-10599
生得	-10600
用水	-10601
簽名	-10602
粵音	-10603
羅拉	-10604
薄荷	-10605
話同	-10606
財富	-10607
過佢	-10608
邊啊	-10609
金獎	-10610
雙程	-10611
驅逐	-10612
麵粉	-10613
(;;	-10614
,「」	-10615
▁全部	-10616
▁呢段	-10617
▁唐字	-10618
▁大學	-10619
▁尋日	-10620
▁醫院	-10621
兩邊嘅	-10622
哦哦哦	-10623
嘅新聞	-10624
將佢哋	-10625
就係噉	-10626
快餐店	-10627
投資者	-10628
排一百	-10629
日耳曼	-10630
星期三	-10631
漢堡包	-10632
紅色嘅	-10633
茲別克	-10634
荷里活	-10635
號綫嘅	-10636
身份證	-10637
阿媽係	-10638
九龍城區	-10639
人口密度	-10640
呢啲地方	-10641
好多時會	-10642
將軍澳綫	-10643
專線小巴	-10644
選舉結果	-10645
係中國湖南	-10646
係香港女歌手	-10647
)》	-10648
▁備	-10649
▁臨	-10650
▁范	-10651
㗎咋	-10652
上台	-10653
中亞	-10654
信用	-10655
做成	-10656
停咗	-10657
儀象	-10658
兩架	-10659
八百	-10660
公所	-10661
六日	-10662
協和	-10663
卽係	-10664
各界	-10665
后髮	-10666
唱碟	-10667
喺正	-10668
嗰位	-10669
嘅黑	-10670
天子	-10671
學同	-10672
審議	-10673
對話	-10674
帶動	-10675
年頭	-10676
底下	-10677
引用	-10678
強姦	-10679
打老	-10680
早啲	-10681
曹丕	-10682
校址	-10683
格局	-10684
格爾	-10685
死刑	-10686
汪精	-10687
流經	-10688
浦和	-10689
秀茂	-10690
立交	-10691
自主	-10692
自願	-10693
航艦	-10694
色係	-10695
薯條	-10696
袋鼠	-10697
診斷	-10698
諗到	-10699
賣嘅	-10700
跟進	-10701
軍營	-10702
轉去	-10703
退咗	-10704
通段	-10705
長今	-10706
間房	-10707
體內	-10708
高溫	-10709
魏國	-10710
▁佢個	-10711
▁傳統	-10712
▁國立	-10713
▁越南	-10714
▁青衣	-10715
交流道	-10716
但嗰時	-10717
包括有	-10718
合唱團	-10719
同佢哋	-10720
嘅目的	-10721
嘅象徵	-10722
多數用	-10723
大元帥	-10724
大道中	-10725
專輯獎	-10726
工作室	-10727
建基於	-10728
張國榮	-10729
得到嘅	-10730
成功嘅	-10731
打麻雀	-10732
文學獎	-10733
新界西	-10734
歷史嘅	-10735
為主嘅	-10736
睇電視	-10737
秀茂坪	-10738
窩打老	-10739
第二代	-10740
簡化字	-10741
而家由	-10742
製造商	-10743
計劃喺	-10744
逳手起	-10745
1932	-10746
1933	-10747
1941	-10748
交水電費	-10749
浦和紅鑽	-10750
蘋果日報	-10751
號喺香港	-10752
,1970	-10753
▁1952	-10754
電影金像獎	-10755
往返月台都得	-10756
(6	-10757
▁入	-10758
▁冰	-10759
▁廖	-10760
▁桑	-10761
▁飾	-10762
他們	-10763
公認	-10764
利潤	-10765
區係	-10766
卓越	-10767
去嘅	-10768
叉戟	-10769
名勝	-10770
呢位	-10771
唱作	-10772
嘅葉	-10773
好早	-10774
家屬	-10775
尺寸	-10776
川縣	-10777
廣從	-10778
後衛	-10779
得嚟	-10780
描繪	-10781
改爲	-10782
改由	-10783
棉花	-10784
民居	-10785
求其	-10786
油炸	-10787
淘寶	-10788
漢文	-10789
熱內	-10790
燈塔	-10791
特爾	-10792
珍寶	-10793
秦皇	-10794
而不	-10795
背後	-10796
華爾	-10797
萊茵	-10798
蛋黃	-10799
計數	-10800
路斯	-10801
都俾	-10802
醫藥	-10803
開門	-10804
食材	-10805
食水	-10806
香山	-10807
鹹片	-10808
240	-10809
▁你講	-10810
之間有	-10811
二十四	-10812
係指喺	-10813
到廣州	-10814
周恩來	-10815
嘅證明	-10816
土瓜灣	-10817
地球上	-10818
所屬嘅	-10819
打前鋒	-10820
收錄咗	-10821
於是乎	-10822
曾蔭權	-10823
會用到	-10824
果個啊	-10825
物體嘅	-10826
老婆係	-10827
而家都	-10828
西營盤	-10829
豐銀行	-10830
1922	-10831
1931	-10832
▁佢係由	-10833
係前香港	-10834
其中包括	-10835
化學元素	-10836
印歐語系	-10837
唔同地方	-10838
巴塞隆拿	-10839
年開始用	-10840
成立之後	-10841
西伯利亞	-10842
電腦科學	-10843
▁1947	-10844
主要分佈喺	-10845
網球公開賽	-10846
湖南衛視播出	-10847
寵物小精靈系列	-10848
係香港電視廣播有限公司製作嘅	-10849
▁坐	-10850
▁歌	-10851
▁讀	-10852
之餘	-10853
作客	-10854
內政	-10855
兵力	-10856
十國	-10857
受害	-10858
古斯	-10859
唔喺	-10860
啊啲	-10861
啦嘛	-10862
大專	-10863
天空	-10864
始皇	-10865
學堂	-10866
尋求	-10867
展現	-10868
年有	-10869
年級	-10870
度同	-10871
抵達	-10872
挨晚	-10873
捕獵	-10874
新歌	-10875
最具	-10876
朝嘅	-10877
杏仁	-10878
梅花	-10879
浦東	-10880
海嘅	-10881
清末	-10882
減輕	-10883
無關	-10884
爾摩	-10885
立嘅	-10886
細隻	-10887
緩跑	-10888
艦隊	-10889
駐守	-10890
點去	-10891
▁事件	-10892
▁傳說	-10893
▁巴士	-10894
係用來	-10895
公園同	-10896
北到南	-10897
博弈論	-10898
原先嘅	-10899
后髮座	-10900
唔小心	-10901
唔確定	-10902
嘅演出	-10903
壁球場	-10904
影響嘅	-10905
搭巴士	-10906
灣仔區	-10907
為基礎	-10908
發言人	-10909
路交界	-10910
鄧小平	-10911
鍾意喺	-10912
長年生	-10913
(190	-10914
▁1。。	-10915
下個星期	-10916
儀象考成	-10917
土耳其文	-10918
天文學家	-10919
或可以係	-10920
族自治縣	-10921
活動中心	-10922
▁1967	-10923
▁1974	-10924
可以追溯到	-10925
或者就咁叫	-10926
維基百科協作	-10927
一係日本足球員	-10928
▁凱	-10929
▁各	-10930
▁算	-10931
▁順	-10932
一排	-10933
中大	-10934
九點	-10935
你想	-10936
倫斯	-10937
元旦	-10938
六七	-10939
刊登	-10940
加熱	-10941
合共	-10942
同安	-10943
同治	-10944
否決	-10945
嗌佢	-10946
嘉慶	-10947
坦桑	-10948
報警	-10949
大到	-10950
島嶼	-10951
平定	-10952
幹事	-10953
得去	-10954
思潮	-10955
我個	-10956
戰術	-10957
把聲	-10958
推進	-10959
搵出	-10960
散文	-10961
文昌	-10962
施政	-10963
書嘅	-10964
會戰	-10965
月起	-10966
標題	-10967
樹幹	-10968
水準	-10969
水面	-10970
沙頭	-10971
演義	-10972
為佢	-10973
特價	-10974
猩猩	-10975
監禁	-10976
省長	-10977
瞭解	-10978
票數	-10979
美人	-10980
膊頭	-10981
落咗	-10982
西湖	-10983
話喺	-10984
跨境	-10985
身邊	-10986
轄市	-10987
週邊	-10988
遠古	-10989
選拔	-10990
里程	-10991
隊友	-10992
風波	-10993
首長	-10994
,13	-10995
280	-10996
▁_3	-10997
▁太平	-10998
▁屯門	-10999
▁而佢	-11000
一直係	-11001
不列顛	-11002
亦曾經	-11003
係九龍	-11004
係元素	-11005
全部都	-11006
創始人	-11007
可以同	-11008
可以從	-11009
唔一樣	-11010
唔到嘅	-11011
喺亞洲	-11012
喺清朝	-11013
因為有	-11014
堆填區	-11015
年代到	-11016
年英國	-11017
放射性	-11018
時間點	-11019
熱內盧	-11020
生物嘅	-11021
畀香港	-11022
發佈咗	-11023
百幾蚊	-11024
緩跑徑	-11025
臺灣省	-11026
號錄製	-11027
計劃中	-11028
路同埋	-11029
金文泰	-11030
黑社會	-11031
1935	-11032
:');	-11033
▁聽到啊	-11034
文章數量	-11035
法定貨幣	-11036
碩士學位	-11037
音樂學院	-11038
,1979	-11039
▁1946	-11040
▁中國大陸	-11041
係中國福建	-11042
房屋委員會	-11043
里約熱內盧	-11044
嘅其中一個省	-11045
入面嘅其中一隻	-11046
自助服務設施畀乘客用	-11047
)」	-11048
,;	-11049
/,	-11050
▁丹	-11051
▁夜	-11052
▁宇	-11053
▁放	-11054
▁環	-11055
▁蓮	-11056
▁諾	-11057
▁霍	-11058
▁非	-11059
》;	-11060
中都	-11061
佳麗	-11062
克萊	-11063
兩座	-11064
八卦	-11065
冇錢	-11066
分流	-11067
前線	-11068
功課	-11069
呢處	-11070
味嘅	-11071
喉嚨	-11072
圓錐	-11073
大把	-11074
宣誓	-11075
崗站	-11076
年重	-11077
拉特	-11078
授予	-11079
敦煌	-11080
明報	-11081
暗殺	-11082
有分	-11083
有史	-11084
水浸	-11085
流程	-11086
無窮	-11087
王后	-11088
理民	-11089
生仔	-11090
看台	-11091
睇嘅	-11092
紫色	-11093
腦區	-11094
藥材	-11095
裏便	-11096
複合	-11097
貸款	-11098
贏過	-11099
輪流	-11100
辣辣	-11101
過左	-11102
關節	-11103
阿叔	-11104
雨量	-11105
靚嘅	-11106
馬騮	-11107
鹿角	-11108
黎明	-11109
903	-11110
▁公里	-11111
▁好彩	-11112
▁或或	-11113
▁戰後	-11114
一條街	-11115
一連串	-11116
七十二	-11117
作品係	-11118
個個都	-11119
傳教士	-11120
北九州	-11121
嘅粵語	-11122
嚟負責	-11123
地鐵方	-11124
女藝人	-11125
好多野	-11126
幾好啊	-11127
提供咗	-11128
攞唔到	-11129
新福利	-11130
本身係	-11131
母嬰室	-11132
爾字母	-11133
獅子山	-11134
盃冠軍	-11135
蒙古國	-11136
號宣佈	-11137
跟住就	-11138
過半數	-11139
▁咁又系	-11140
▁意大利	-11141
亞美尼亞	-11142
亦都可以	-11143
公共汽車	-11144
北京大學	-11145
坦桑尼亞	-11146
穆罕默德	-11147
街遊樂場	-11148
西去到東	-11149
高級中學	-11150
▁1930	-11151
合約女藝員	-11152
熱帶低氣壓	-11153
自動櫃員機	-11154
位置喺天河區	-11155
街道係中國廣東省廣州市	-11156
一地	-11157
一職	-11158
之旅	-11159
人為	-11160
代謝	-11161
你咁	-11162
使到	-11163
係五	-11164
係會	-11165
全會	-11166
分咗	-11167
利是	-11168
助手	-11169
古城	-11170
啊好	-11171
啲啦	-11172
嘅反	-11173
嘅機	-11174
嘅黃	-11175
噪音	-11176
大石	-11177
好友	-11178
姿勢	-11179
宮殿	-11180
寄生	-11181
屏幕	-11182
層次	-11183
島同	-11184
常識	-11185
年嗰	-11186
德輔	-11187
愛滋	-11188
披針	-11189
搵咗	-11190
收咗	-11191
故居	-11192
日係	-11193
歸納	-11194
死喺	-11195
水流	-11196
池灣	-11197
游泳	-11198
準則	-11199
熱水	-11200
爲主	-11201
獎品	-11202
睇睇	-11203
祖兒	-11204
糾紛	-11205
編舞	-11206
罪行	-11207
而個	-11208
聽眾	-11209
藥用	-11210
號响	-11211
見面	-11212
話成	-11213
過多	-11214
開到	-11215
闊嘅	-11216
陣容	-11217
陽縣	-11218
電臺	-11219
預備	-11220
預先	-11221
駐港	-11222
魚肉	-11223
魷魚	-11224
齊齊	-11225
▁啊啊	-11226
▁日期	-11227
▁肉眼	-11228
人口約	-11229
入面啲	-11230
十一點	-11231
商業區	-11232
嘅人士	-11233
嘅冠軍	-11234
嘅第四	-11235
嘅部份	-11236
就係由	-11237
年引入	-11238
時間去	-11239
普魯士	-11240
會影響	-11241
有名嘅	-11242
格拉斯	-11243
生活嘅	-11244
羅亞素	-11245
而且喺	-11246
職人員	-11247
自己做	-11248
舊時叫	-11249
英聯邦	-11250
覺得好	-11251
話佢係	-11252
部份嘅	-11253
音樂家	-11254
1929	-11255
1939	-11256
5000	-11257
▁佢哋嘅	-11258
▁佢既係	-11259
▁同其他	-11260
以下呢啲	-11261
原子重量	-11262
城市大學	-11263
範圍包括	-11264
,1982	-11265
▁1969	-11266
係香港一座	-11267
壯族自治區	-11268
熊本羅亞素	-11269
號逢禮拜日	-11270
係香港女藝人	-11271
係香港立法會	-11272
站係上海地鐵	-11273
交水電費同交通	-11274
,000,000	-11275
5.	-11276
▁啫	-11277
▁聯	-11278
一隊	-11279
也納	-11280
人次	-11281
人獎	-11282
伶仃	-11283
個鄉	-11284
光年	-11285
兩點	-11286
加快	-11287
同葉	-11288
壓縮	-11289
大小	-11290
存車	-11291
家居	-11292
審判	-11293
寺院	-11294
對陣	-11295
少過	-11296
惡劣	-11297
戰列	-11298
接納	-11299
損害	-11300
新秀	-11301
晶體	-11302
朝代	-11303
校友	-11304
格魯	-11305
橡膠	-11306
狼嘅	-11307
畀返	-11308
祖師	-11309
粟米	-11310
航站	-11311
花城	-11312
華東	-11313
衫褲	-11314
西便	-11315
足以	-11316
身為	-11317
轟炸	-11318
近乎	-11319
達斯	-11320
邨同	-11321
韻尾	-11322
▁倫敦	-11323
▁唔少	-11324
▁地點	-11325
▁當年	-11326
▁自此	-11327
上係指	-11328
億美元	-11329
先後喺	-11330
半導體	-11331
只能夠	-11332
嘅年號	-11333
嘅計劃	-11334
四川省	-11335
固定嘅	-11336
外交部	-11337
多數都	-11338
天文學	-11339
威爾士	-11340
年代起	-11341
控制嘅	-11342
月初五	-11343
柯士甸	-11344
條路線	-11345
流行嘅	-11346
特別嘅	-11347
用嚟整	-11348
石硤尾	-11349
研究生	-11350
立方米	-11351
系啊我	-11352
而家就	-11353
腦電圖	-11354
薩隆拿	-11355
講嘅係	-11356
貴唔貴	-11357
都好大	-11358
電影院	-11359
類動物	-11360
1923	-11361
一般認為	-11362
嘅一系列	-11363
日人口有	-11364
果個果個	-11365
踢館歌手	-11366
辛亥革命	-11367
通常都會	-11368
鳥取飛翔	-11369
▁為咗方便	-11370
係香港藝人	-11371
加利福尼亞州	-11372
轄下嘅一個街道	-11373
▁第二次世界大戰	-11374
電視遊戲寵物小精靈系列	-11375
▁收	-11376
「-	-11377
』,	-11378
上蓋	-11379
世民	-11380
二等	-11381
介入	-11382
住啊	-11383
你啦	-11384
係馬	-11385
出售	-11386
分會	-11387
化成	-11388
同下	-11389
唔成	-11390
嘅非	-11391
困境	-11392
在任	-11393
在野	-11394
坊間	-11395
基部	-11396
大個	-11397
太祖	-11398
安定	-11399
官立	-11400
專區	-11401
屬性	-11402
年將	-11403
從業	-11404
德軍	-11405
性交	-11406
性能	-11407
手槍	-11408
扯旗	-11409
拍劇	-11410
捉咗	-11411
操控	-11412
整闊	-11413
時事	-11414
曹魏	-11415
東縣	-11416
格里	-11417
案例	-11418
樓下	-11419
檢討	-11420
死傷	-11421
毀滅	-11422
深受	-11423
班啊	-11424
產權	-11425
由此	-11426
祭祀	-11427
禮儀	-11428
租借	-11429
節度	-11430
縮細	-11431
考到	-11432
耳仔	-11433
職工	-11434
芙蓉	-11435
華納	-11436
號俾	-11437
血壓	-11438
見證	-11439
角逐	-11440
識別	-11441
賣咗	-11442
軍用	-11443
配備	-11444
重心	-11445
關羽	-11446
限於	-11447
陳家	-11448
隱藏	-11449
零蚊	-11450
靚仔	-11451
風力	-11452
飛蛾	-11453
高樓	-11454
黨內	-11455
)、(	-11456
103	-11457
▁40	-11458
▁中共	-11459
▁司馬	-11460
▁幾時	-11461
▁機場	-11462
▁清朝	-11463
《》,	-11464
上一次	-11465
你果邊	-11466
另一位	-11467
呢條式	-11468
咁上下	-11469
嘅星座	-11470
嘅英國	-11471
嚟呢度	-11472
大中華	-11473
巴布韋	-11474
年當選	-11475
月初一	-11476
月加入	-11477
每小時	-11478
特徵係	-11479
甚至有	-11480
產生咗	-11481
由英國	-11482
短時間	-11483
緊要嘅	-11484
荷蘭文	-11485
變咗做	-11486
赤鱲角	-11487
▁仙女座	-11488
加拿大嘅	-11489
商業中心	-11490
基督教會	-11491
富山勝利	-11492
屆金曲獎	-11493
平板電腦	-11494
心理學家	-11495
成日俾人	-11496
效力橫濱	-11497
文藝復興	-11498
津巴布韋	-11499
演藝學院	-11500
珠澳大橋	-11501
萬平方米	-11502
▁廣州市第	-11503
樓係嘅月台	-11504
係維基百科協作	-11505
號綫一個地鐵站	-11506
西去到東嚟排嘅	-11507
語言嘅維基百科	-11508
:1	-11509
▁í	-11510
▁向	-11511
▁孟	-11512
▁微	-11513
▁快	-11514
▁換	-11515
▁搞	-11516
▁沈	-11517
▁蔣	-11518
一律	-11519
一月	-11520
世家	-11521
丞相	-11522
九佛	-11523
二樓	-11524
亦為	-11525
住過	-11526
元璋	-11527
克拉	-11528
六號	-11529
其次	-11530
出沒	-11531
分出	-11532
南漢	-11533
參謀	-11534
可靠	-11535
合組	-11536
同林	-11537
含義	-11538
唔住	-11539
唔准	-11540
啦佢	-11541
嘅詩	-11542
基層	-11543
好評	-11544
字樣	-11545
安慶	-11546
宗旨	-11547
實在	-11548
工地	-11549
已有	-11550
情形	-11551
才能	-11552
打鼓	-11553
排喺	-11554
提煉	-11555
改喺	-11556
整好	-11557
星團	-11558
檔口	-11559
正規	-11560
江戶	-11561
消耗	-11562
清拆	-11563
澤西	-11564
焦點	-11565
爭論	-11566
特蘭	-11567
男聲	-11568
百合	-11569
直達	-11570
福州	-11571
細妹	-11572
紳士	-11573
聲援	-11574
蒸氣	-11575
薩維	-11576
讀做	-11577
變動	-11578
路面	-11579
辭典	-11580
返左	-11581
通識	-11582
雕刻	-11583
霸咗	-11584
黑暗	-11585
黨同	-11586
15,	-11587
▁最佳	-11588
▁西洋	-11589
一到四	-11590
依家嘅	-11591
係人類	-11592
個車站	-11593
博覽館	-11594
好多年	-11595
就係話	-11596
平方度	-11597
年攞到	-11598
批准咗	-11599
本土派	-11600
標準嘅	-11601
爵士樂	-11602
獨特嘅	-11603
站同埋	-11604
第一輯	-11605
美國人	-11606
被認為	-11607
返出嚟	-11608
通常喺	-11609
都比較	-11610
鑽石山	-11611
阿爸係	-11612
▁,。。	-11613
▁但由於	-11614
▁喺中國	-11615
主辦單位	-11616
亦有唔少	-11617
任何一個	-11618
同政治人	-11619
同東南亞	-11620
嗰段時間	-11621
女子組合	-11622
星級酒店	-11623
最後一次	-11624
最高人民	-11625
油尖旺區	-11626
生態系統	-11627
研究中心	-11628
經濟技術	-11629
驚悚電影	-11630
▁1953	-11631
入面嘅其中一隻小精靈	-11632
係日本電視遊戲寵物小精靈系列	-11633
▁乙	-11634
▁受	-11635
▁蒙	-11636
下啦	-11637
亞冠	-11638
人人	-11639
人力	-11640
係古	-11641
共通	-11642
冧咗	-11643
出事	-11644
啲咁	-11645
嘅單	-11646
嘅船	-11647
國外	-11648
墨索	-11649
大興	-11650
學歷	-11651
安倍	-11652
幫襯	-11653
得咁	-11654
我好	-11655
掂到	-11656
支付	-11657
新世	-11658
新港	-11659
方塊	-11660
橄欖	-11661
歌舞	-11662
歐羅	-11663
正門	-11664
沼澤	-11665
濟南	-11666
濱江	-11667
灌溉	-11668
爭奪	-11669
球迷	-11670
環繞	-11671
登輝	-11672
神學	-11673
福田	-11674
而設	-11675
花嘅	-11676
補助	-11677
豪宅	-11678
跌到	-11679
路邊	-11680
較大	-11681
進軍	-11682
運會	-11683
長征	-11684
間中	-11685
電位	-11686
青雲	-11687
領隊	-11688
食同	-11689
首任	-11690
騎兵	-11691
高山	-11692
麪包	-11693
黑白	-11694
點算	-11695
▁、、	-11696
▁中間	-11697
▁個名	-11698
▁蝴蝶	-11699
▁韓國	-11700
上海市	-11701
例說明	-11702
半山區	-11703
卑詩省	-11704
原來嘅	-11705
參與者	-11706
參議員	-11707
同兩個	-11708
同政治	-11709
喺嗰度	-11710
嘅部分	-11711
如果佢	-11712
已經響	-11713
東南面	-11714
浸信會	-11715
第一名	-11716
起源於	-11717
足球賽	-11718
部部長	-11719
閩南話	-11720
頭一位	-11721
1200	-11722
▁哦咁你	-11723
六四事件	-11724
同廣州市	-11725
喺香港嘅	-11726
墨索里尼	-11727
所以就叫	-11728
正式成立	-11729
環境保護	-11730
資訊科技	-11731
越嚟越多	-11732
足球協會	-11733
▁1961	-11734
自動販賣機	-11735
芭蕾舞蹈員	-11736
中國高速公路	-11737
之後喺突圍賽	-11738
二級歷史建築	-11739
',	-11740
02	-11741
▁左	-11742
▁春	-11743
▁知	-11744
▁被	-11745
▁越	-11746
一曲	-11747
上將	-11748
係乜	-11749
信奉	-11750
傷亡	-11751
充分	-11752
共用	-11753
冰室	-11754
出聲	-11755
利嘅	-11756
加密	-11757
匈奴	-11758
匯合	-11759
升學	-11760
卡巴	-11761
印第	-11762
危害	-11763
去啲	-11764
同兩	-11765
嘢做	-11766
嚟啊	-11767
失事	-11768
奕迅	-11769
安檢	-11770
帝王	-11771
帶啲	-11772
廣韻	-11773
得滯	-11774
心嘅	-11775
惡魔	-11776
打嘅	-11777
抗爭	-11778
抬起	-11779
掃描	-11780
掛住	-11781
文言	-11782
新增	-11783
方針	-11784
日記	-11785
曆法	-11786
李氏	-11787
標示	-11788
正係	-11789
汽水	-11790
流感	-11791
消毒	-11792
漸漸	-11793
畫成	-11794
發咗	-11795
矩陣	-11796
社屋	-11797
粒到	-11798
膨脹	-11799
航道	-11800
萬元	-11801
萬里	-11802
討伐	-11803
認真	-11804
貓嘅	-11805
購買	-11806
辦理	-11807
重整	-11808
金銀	-11809
錢就	-11810
間廠	-11811
陰謀	-11812
麗莎	-11813
-10	-11814
220	-11815
350	-11816
▁(,	-11817
▁29	-11818
▁70	-11819
▁哦我	-11820
▁演唱	-11821
▁當地	-11822
▁研究	-11823
▁系列	-11824
▁負責	-11825
▁長洲	-11826
係成個	-11827
係當今	-11828
十五年	-11829
可以再	-11830
同印度	-11831
同廣東	-11832
唔知道	-11833
唔鐘意	-11834
啊咁啊	-11835
嘅支持	-11836
嘅日本	-11837
大主教	-11838
將會喺	-11839
工聯會	-11840
戰列艦	-11841
東北排	-11842
果啲系	-11843
某一個	-11844
決定喺	-11845
河流域	-11846
法西斯	-11847
理民府	-11848
理論上	-11849
生產嘅	-11850
用嘅係	-11851
知名度	-11852
綜合性	-11853
羅群島	-11854
羅馬傳	-11855
黑沙環	-11856
充羊城通	-11857
改咗名嗌	-11858
正式宣佈	-11859
深水埗區	-11860
鴻基地產	-11861
21:30	-11862
▁1954	-11863
▁1955	-11864
▁1977	-11865
北半球來講	-11866
第二輪投票	-11867
號逢禮拜六	-11868
係香港模特兒	-11869
中共中央政治局	-11870
之後喺突圍賽演唱	-11871
英格蘭超級足球聯賽	-11872
2》	-11873
▁例	-11874
▁惠	-11875
▁船	-11876
▁靈	-11877
一女	-11878
中子	-11879
亦唔	-11880
以免	-11881
企喺	-11882
修憲	-11883
俾個	-11884
全力	-11885
公廟	-11886
判決	-11887
北市	-11888
十號	-11889
卑斯	-11890
合同	-11891
名譽	-11892
唐樓	-11893
唔通	-11894
喺一	-11895
地表	-11896
多爾	-11897
太太	-11898
孔子	-11899
完咗	-11900
師奶	-11901
怡和	-11902
惡搞	-11903
愛你	-11904
慶典	-11905
抑或	-11906
會叫	-11907
月被	-11908
果條	-11909
沙河	-11910
渣打	-11911
澤民	-11912
火燒	-11913
白金	-11914
秋田	-11915
系嘅	-11916
美容	-11917
芭瑪	-11918
荔景	-11919
萬個	-11920
萬千	-11921
蛋形	-11922
西敏	-11923
負擔	-11924
財團	-11925
路德	-11926
車長	-11927
軍銜	-11928
週刊	-11929
遷徙	-11930
門票	-11931
開槍	-11932
頭同	-11933
駐地	-11934
騎樓	-11935
▁1,	-11936
▁我都	-11937
▁木衞	-11938
▁自己	-11939
一般有	-11940
上帝嘅	-11941
之後佢	-11942
五十蚊	-11943
以前係	-11944
但佢哋	-11945
你可以	-11946
係嚟自	-11947
偉大嘅	-11948
又有啲	-11949
同亞洲	-11950
哥連斯	-11951
嘅人物	-11952
嘅效果	-11953
嘅權力	-11954
嘅特性	-11955
嚟表示	-11956
城市係	-11957
大律師	-11958
大球場	-11959
審裁處	-11960
年畢業	-11961
引起咗	-11962
張唱片	-11963
所以要	-11964
曼帝國	-11965
氨基酸	-11966
汪精衛	-11967
游水衫	-11968
熱辣辣	-11969
目標係	-11970
睇落去	-11971
程度上	-11972
種類嘅	-11973
第一期	-11974
第四季	-11975
西南面	-11976
西邊嘅	-11977
避風塘	-11978
隆尼亞	-11979
▁3。。	-11980
▁有好多	-11981
八十年代	-11982
出場順序	-11983
右手揸拍	-11984
喜劇電影	-11985
因為佢哋	-11986
展覽中心	-11987
烏茲別克	-11988
百科全書	-11989
▁1959	-11990
人民解放軍	-11991
行政長官選舉	-11992
▁或或或可以係	-11993
甲組職業足球聯賽	-11994
)(	-11995
▁[	-11996
▁世	-11997
▁查	-11998
▁經	-11999
▁魏	-12000
七大	-12001
上高	-12002
丘陵	-12003
中式	-12004
之首	-12005
人文	-12006
仙人	-12007
個海	-12008
割據	-12009
半個	-12010
右翼	-12011
吉亞	-12012
同後	-12013
咁遠	-12014
咁長	-12015
咩話	-12016
嘅佢	-12017
國雄	-12018
大澳	-12019
大略	-12020
封面	-12021
島係	-12022
已被	-12023
廣福	-12024
戰隊	-12025
戶籍	-12026
投身	-12027
搞錯	-12028
晚報	-12029
普羅	-12030
月出	-12031
有意	-12032
村同	-12033
東江	-12034
架坡	-12035
校方	-12036
業界	-12037
永樂	-12038
波箱	-12039
流花	-12040
滿貫	-12041
無效	-12042
爾巴	-12043
現璠	-12044
琵琶	-12045
省份	-12046
神奇	-12047
答臘	-12048
管道	-12049
籌款	-12050
細細	-12051
維新	-12052
繁華	-12053
股價	-12054
萬物	-12055
蘇門	-12056
號就	-12057
血統	-12058
行走	-12059
製品	-12060
西里	-12061
話畀	-12062
賽制	-12063
跳樓	-12064
迴歸	-12065
長青	-12066
隆坡	-12067
雍正	-12068
面闊	-12069
額外	-12070
高校	-12071
123	-12072
▁元朗	-12073
▁港鐵	-12074
▁米高	-12075
▁耶穌	-12076
上次去	-12077
佔天球	-12078
分別有	-12079
加斯加	-12080
即系佢	-12081
同澳門	-12082
嘅行動	-12083
大道同	-12084
掘頭路	-12085
最後由	-12086
月初八	-12087
治療室	-12088
用電腦	-12089
知識城	-12090
研究員	-12091
第三個	-12092
第十四	-12093
1926	-12094
▁係一種	-12095
一個城市	-12096
理工學院	-12097
當地時間	-12098
系唔系啊	-12099
結束之後	-12100
認知科學	-12101
黃大仙區	-12102
▁1941	-12103
▁佢響天球	-12104
▁好啊好啊	-12105
佔天球面積	-12106
係中國陝西	-12107
個人演唱會	-12108
八十八西洋	-12109
其中一個省	-12110
位置喺黃埔區	-12111
由非牟利組織	-12112
▁肉眼可以睇到	-12113
家下八十八西洋	-12114
次全國代表大會	-12115
▁地球北半球來講	-12116
家下八十八西洋星座之一	-12117
**	-12118
▁圓	-12119
▁場	-12120
▁赫	-12121
一體	-12122
下咯	-12123
乃至	-12124
五點	-12125
位賽	-12126
保衛	-12127
分之	-12128
初級	-12129
南道	-12130
叉燒	-12131
句子	-12132
和合	-12133
和路	-12134
咸道	-12135
哥德	-12136
嘅就	-12137
回教	-12138
坪洲	-12139
報償	-12140
塊地	-12141
塞羅	-12142
太大	-12143
字節	-12144
客量	-12145
山莊	-12146
市人	-12147
彩色	-12148
後裔	-12149
指南	-12150
提亞	-12151
摩托	-12152
操場	-12153
擔當	-12154
新浪	-12155
新生	-12156
日野	-12157
株式	-12158
梵文	-12159
水泥	-12160
污水	-12161
洛克	-12162
清廷	-12163
滑雪	-12164
犧牲	-12165
玄武	-12166
當場	-12167
石刻	-12168
石灰	-12169
硫酸	-12170
納米	-12171
終審	-12172
聯辦	-12173
腫瘤	-12174
衰竭	-12175
被指	-12176
計埋	-12177
評選	-12178
話唔	-12179
誇張	-12180
議長	-12181
象牙	-12182
跟著	-12183
車隊	-12184
轉會	-12185
迪斯	-12186
迫害	-12187
週末	-12188
遠離	-12189
遺體	-12190
都算	-12191
防護	-12192
陳嘉	-12193
雪梨	-12194
電信	-12195
馬季	-12196
▁88	-12197
▁即使	-12198
▁太陽	-12199
▁東京	-12200
▁系啦	-12201
▁譬如	-12202
下一代	-12203
休息啊	-12204
健力士	-12205
全香港	-12206
嘅會員	-12207
嘅運動	-12208
大自然	-12209
局局長	-12210
性行為	-12211
有兩種	-12212
有啲係	-12213
有興趣	-12214
甚至乎	-12215
畢業生	-12216
省首府	-12217
舉行咗	-12218
藝術品	-12219
號元素	-12220
起咗間	-12221
路易斯	-12222
重有個	-12223
頭一個	-12224
食左飯	-12225
首通段	-12226
馬拉松	-12227
高加索	-12228
可以分為	-12229
大埔公路	-12230
管理公司	-12231
中國科學院	-12232
係中國浙江	-12233
中國高速公路代碼	-12234
部扶手電梯同樓梯	-12235
▁名	-12236
▁庫	-12237
▁死	-12238
▁燒	-12239
▁鴨	-12240
三路	-12241
上聲	-12242
不治	-12243
人質	-12244
位處	-12245
佛堂	-12246
佢為	-12247
做左	-12248
先啊	-12249
凈限	-12250
出嗮	-12251
卷書	-12252
又去	-12253
取自	-12254
同紅	-12255
呢尐	-12256
咁㗎	-12257
唔怕	-12258
喪失	-12259
嘅二	-12260
嘅北	-12261
嘅啫	-12262
嘅多	-12263
大窩	-12264
奠基	-12265
好玩	-12266
安娜	-12267
常規	-12268
年係	-12269
年嚟	-12270
年攞	-12271
情侶	-12272
成龍	-12273
我啲	-12274
我有	-12275
打造	-12276
擴充	-12277
改組	-12278
新街	-12279
日式	-12280
晚間	-12281
會變	-12282
標籤	-12283
模原	-12284
沙面	-12285
沿途	-12286
洋蔥	-12287
淨低	-12288
港英	-12289
火警	-12290
無聊	-12291
狙擊	-12292
生到	-12293
當初	-12294
白浪	-12295
盛行	-12296
砂糖	-12297
系喔	-12298
細碟	-12299
紹興	-12300
繪畫	-12301
美孚	-12302
聽覺	-12303
胡桃	-12304
自轉	-12305
萬曆	-12306
西瓜	-12307
要到	-12308
許冠	-12309
諾斯	-12310
講咗	-12311
講師	-12312
譯成	-12313
贊成	-12314
路綫	-12315
過往	-12316
陵園	-12317
雅圖	-12318
集結	-12319
風俗	-12320
香雪	-12321
▁27	-12322
▁人類	-12323
▁包括	-12324
▁大概	-12325
▁荃灣	-12326
▁阿拉	-12327
佢哋做	-12328
係位於	-12329
個人嘅	-12330
健身徑	-12331
公里嘅	-12332
即系講	-12333
原子核	-12334
唔使話	-12335
嗰時係	-12336
嗰陣有	-12337
嘅價錢	-12338
嘅全部	-12339
嘅決定	-12340
大清潔	-12341
天安門	-12342
學生會	-12343
幾十年	-12344
廟號叫	-12345
搞咗個	-12346
政府同	-12347
星架坡	-12348
每個月	-12349
氣象局	-12350
波士頓	-12351
理性嘅	-12352
生活喺	-12353
相應嘅	-12354
程度嘅	-12355
維他命	-12356
而用咗	-12357
萬篇文	-12358
規模嘅	-12359
錫克教	-12360
離開咗	-12361
住宅單位	-12362
南去到北	-12363
同俄羅斯	-12364
廉政公署	-12365
應用程式	-12366
摩天大廈	-12367
文化中心	-12368
美國電影	-12369
過程入面	-12370
長期記憶	-12371
開始出現	-12372
▁呢個時候	-12373
反逃犯條例修訂	-12374
▁с	-12375
▁次	-12376
▁詹	-12377
一夜	-12378
不明	-12379
世代	-12380
中南	-12381
之王	-12382
事發	-12383
仙鶴	-12384
低音	-12385
住客	-12386
係屬	-12387
借用	-12388
傷殘	-12389
入海	-12390
出色	-12391
加到	-12392
動態	-12393
又同	-12394
口徑	-12395
同劉	-12396
同德	-12397
呢三	-12398
咩啫	-12399
唔敢	-12400
啊嚇	-12401
嗰一	-12402
嘅五	-12403
嘅官	-12404
嘅野	-12405
四條	-12406
四面	-12407
土話	-12408
埋啊	-12409
多間	-12410
大巴	-12411
大潭	-12412
太宗	-12413
少量	-12414
屈曲	-12415
引導	-12416
後半	-12417
得人	-12418
打機	-12419
撤退	-12420
敬軒	-12421
整蠱	-12422
更改	-12423
本營	-12424
村站	-12425
步行	-12426
武士	-12427
濃度	-12428
火藥	-12429
燈籠	-12430
由馬	-12431
留返	-12432
的確	-12433
盛岡	-12434
相聲	-12435
祈禱	-12436
祖國	-12437
耕田	-12438
聖火	-12439
落嘅	-12440
葵芳	-12441
蔴地	-12442
號召	-12443
號稱	-12444
西江	-12445
視網	-12446
解除	-12447
跟團	-12448
較高	-12449
遼東	-12450
酵素	-12451
雷斯	-12452
鹿島	-12453
-14	-12454
:15	-12455
?。。	-12456
_12	-12457
▁_4	-12458
▁」(	-12459
▁東方	-12460
▁選舉	-12461
佢老婆	-12462
傾下計	-12463
先得㗎	-12464
北面嘅	-12465
南海縣	-12466
咗呢個	-12467
唔去啊	-12468
嘅需求	-12469
多啲人	-12470
大埔墟	-12471
大屠殺	-12472
學生嘅	-12473
容祖兒	-12474
德國嘅	-12475
新一代	-12476
本身嘅	-12477
粵語嘅	-12478
葡萄糖	-12479
號推出	-12480
開放畀	-12481
馬尼拉	-12482
1860	-12483
1900	-12484
▁[[:	-12485
▁你有冇	-12486
係全世界	-12487
就喺呢度	-12488
得唔得閒	-12489
規劃入面	-12490
,1950	-12491
▁1971	-12492
中國好聲音	-12493
畀乘客買嘢	-12494
▁佢喺香港出世	-12495
係維基百科協作計劃嘅	-12496
%;	-12497
(7	-12498
(《	-12499
,(	-12500
03	-12501
2～	-12502
▁子	-12503
▁曼	-12504
▁桂	-12505
▁紙	-12506
▁葡	-12507
七點	-12508
並稱	-12509
伸展	-12510
住院	-12511
佢來	-12512
係真	-12513
俊傑	-12514
倒數	-12515
優質	-12516
全能	-12517
八仙	-12518
八鯨	-12519
北上	-12520
厚嘅	-12521
原意	-12522
友好	-12523
古物	-12524
可達	-12525
同金	-12526
咁啦	-12527
哦你	-12528
唔開	-12529
單數	-12530
嘅寶	-12531
四千	-12532
回族	-12533
土著	-12534
地標	-12535
外省	-12536
多條	-12537
大腦	-12538
太原	-12539
小販	-12540
就連	-12541
幕前	-12542
幾靚	-12543
座落	-12544
康復	-12545
愛好	-12546
招標	-12547
揾到	-12548
文書	-12549
新巴	-12550
新星	-12551
更有	-12552
最為	-12553
本州	-12554
格斯	-12555
比倫	-12556
法師	-12557
洛哥	-12558
流水	-12559
潮濕	-12560
為期	-12561
無得	-12562
王位	-12563
瓢蟲	-12564
用手	-12565
痕跡	-12566
簽證	-12567
細階	-12568
萬噸	-12569
被捕	-12570
複數	-12571
西人	-12572
要點	-12573
請我	-12574
走左	-12575
車啊	-12576
轉入	-12577
轉成	-12578
運送	-12579
都由	-12580
都畀	-12581
鄉民	-12582
醫師	-12583
醫護	-12584
陶瓷	-12585
類推	-12586
馬力	-12587
188	-12588
▁呢屆	-12589
▁屋苑	-12590
▁果屬	-12591
▁迴圈	-12592
▁開始	-12593
人認為	-12594
仲可以	-12595
你唔好	-12596
佢個仔	-12597
係上海	-12598
係大明	-12599
個月台	-12600
創作嘅	-12601
即系嘛	-12602
原本叫	-12603
啱啱好	-12604
嗯嗯嗯	-12605
嗰陣就	-12606
嘅前身	-12607
嘅感覺	-12608
嘅故仔	-12609
嘅續集	-12610
大教堂	-12611
好鍾意	-12612
寫真集	-12613
就唔使	-12614
年出嘅	-12615
會產生	-12616
相對論	-12617
節目組	-12618
統治者	-12619
總統府	-12620
號綫同	-12621
被譽為	-12622
超音速	-12623
醫院嘅	-12624
飛行員	-12625
▁除咗噉	-12626
一個禮拜	-12627
世界遺產	-12628
中學會考	-12629
喺廣州市	-12630
影響力嘅	-12631
手提電話	-12632
拉丁轉寫	-12633
死亡個案	-12634
獨立運動	-12635
當中包括	-12636
規模排名	-12637
▁1963	-12638
名古屋八鯨	-12639
珠江三角洲	-12640
太平洋颱風季	-12641
西南到東北排	-12642
先至改咗噉嘅名	-12643
▁肉眼可以睇到嘅星	-12644
-4	-12645
-5	-12646
▁恆	-12647
▁杉	-12648
▁避	-12649
▁鎮	-12650
三軸	-12651
中等	-12652
之分	-12653
之星	-12654
人選	-12655
倍數	-12656
做官	-12657
公正	-12658
冇嗮	-12659
出血	-12660
分級	-12661
千禧	-12662
升為	-12663
半山	-12664
南門	-12665
即位	-12666
原嚟	-12667
去玩	-12668
又多	-12669
咗成	-12670
嘅先	-12671
嘅色	-12672
地殼	-12673
大頭	-12674
射入	-12675
小區	-12676
就啱	-12677
平聲	-12678
年響	-12679
德爾	-12680
德育	-12681
擴散	-12682
改過	-12683
日落	-12684
旺季	-12685
更高	-12686
東經	-12687
果實	-12688
某種	-12689
條橋	-12690
樹種	-12691
橢圓	-12692
殺入	-12693
沙島	-12694
洪聖	-12695
為之	-12696
無我	-12697
物流	-12698
由張	-12699
町田	-12700
直譯	-12701
相差	-12702
礦物	-12703
突發	-12704
算啦	-12705
紫微	-12706
細亞	-12707
美女	-12708
老街	-12709
脫歐	-12710
藤枝	-12711
行者	-12712
西元	-12713
西域	-12714
要係	-12715
訴求	-12716
買買	-12717
車牌	-12718
迎接	-12719
送畀	-12720
通稱	-12721
野做	-12722
金澤	-12723
雕像	-12724
風速	-12725
飛去	-12726
骰仔	-12727
龐德	-12728
3.5	-12729
▁備註	-12730
▁威廉	-12731
▁建築	-12732
主要做	-12733
依家係	-12734
列入咗	-12735
同越南	-12736
喺學校	-12737
嘅唔同	-12738
嘅所有	-12739
嘅科學	-12740
嘅能量	-12741
噉樣嘅	-12742
大埔海	-12743
大氣層	-12744
對佢嘅	-12745
工程學	-12746
年完成	-12747
最低嘅	-12748
月初六	-12749
格陵蘭	-12750
梗系啦	-12751
滿地可	-12752
畀觀眾	-12753
第一架	-12754
花崗岩	-12755
見到嘅	-12756
進行嘅	-12757
間客房	-12758
1910	-12759
今時今日	-12760
做過香港	-12761
加勒比海	-12762
北愛爾蘭	-12763
漢藏語系	-12764
私人屋苑	-12765
範圍入面	-12766
跟廟號叫	-12767
重參加過	-12768
附屬公司	-12769
,1983	-12770
▁1965	-12771
▁亞歷山大	-12772
皇家馬德里	-12773
係西班牙亞拉	-12774
(9	-12775
1/	-12776
4.	-12777
ok	-12778
▁所	-12779
▁朗	-12780
▁燕	-12781
▁菓	-12782
▁那	-12783
、?	-12784
㗎話	-12785
一些	-12786
一棟	-12787
一舊	-12788
三萬	-12789
並列	-12790
中港	-12791
人間	-12792
偏向	-12793
傳達	-12794
儲起	-12795
克爾	-12796
分歧	-12797
利班	-12798
又靚	-12799
同花	-12800
名錄	-12801
呢首	-12802
嘅根	-12803
嘅舊	-12804
四位	-12805
圖形	-12806
塞浦	-12807
大英	-12808
大風	-12809
奇兵	-12810
學金	-12811
寫過	-12812
專登	-12813
山坡	-12814
平日	-12815
彈性	-12816
打壓	-12817
排放	-12818
排球	-12819
據講	-12820
支配	-12821
政壇	-12822
文版	-12823
日益	-12824
期甲	-12825
李活	-12826
每秒	-12827
水池	-12828
沸點	-12829
泉州	-12830
波衫	-12831
海面	-12832
溶液	-12833
演技	-12834
澱粉	-12835
灣區	-12836
爬蟲	-12837
犯規	-12838
用返	-12839
登上	-12840
白石	-12841
真光	-12842
短嘅	-12843
福特	-12844
而嚟	-12845
聖地	-12846
肯雅	-12847
自古	-12848
興奮	-12849
菲爾	-12850
薯仔	-12851
誤會	-12852
跟隨	-12853
車禍	-12854
退位	-12855
遺跡	-12856
阿嫲	-12857
除夕	-12858
零年	-12859
高考	-12860
龍華	-12861
-20	-12862
▁得閒	-12863
▁有關	-12864
▁比賽	-12865
▁比較	-12866
▁泰國	-12867
▁部分	-12868
中間嘅	-12869
事務所	-12870
事務處	-12871
仍然係	-12872
令到佢	-12873
仲有冇	-12874
係波蘭	-12875
係由於	-12876
北京市	-12877
十二點	-12878
可以話	-12879
各地嘅	-12880
唔清楚	-12881
喺屯門	-12882
嘅球員	-12883
嚟香港	-12884
女配角	-12885
就一直	-12886
就好啲	-12887
已知嘅	-12888
巴尼亞	-12889
廣州府	-12890
廣東歌	-12891
引擎嘅	-12892
月廿四	-12893
比賽嘅	-12894
無線電	-12895
產階級	-12896
發生過	-12897
相模原	-12898
第二任	-12899
萬人用	-12900
藝術館	-12901
都柏林	-12902
馬頭圍	-12903
1919	-12904
▁傳統上	-12905
▁公元前	-12906
▁嗯嗯嗯	-12907
▁大多數	-12908
一般嚟講	-12909
中央銀行	-12910
主要用嚟	-12911
克羅地亞	-12912
嘅一個省	-12913
國共內戰	-12914
夜會見到	-12915
格林尼治	-12916
民主主義	-12917
票站調查	-12918
維持負責	-12919
職業生涯	-12920
體育西路	-12921
高速鐵路	-12922
▁不過到咗	-12923
召開記者會	-12924
屬嘅長年生	-12925
打前鋒位置	-12926
文章數量計	-12927
為首發歌手	-12928
鐵路管理局	-12929
高清翡翠台	-12930
位置喺白雲區	-12931
語言嘅維基百科計劃中	-12932
維基媒體基金會維持負責	-12933
_5	-12934
▁á	-12935
▁定	-12936
▁柴	-12937
▁禾	-12938
▁立	-12939
▁耶	-12940
▁谷	-12941
▁迪	-12942
一嚿	-12943
一書	-12944
上便	-12945
中最	-12946
中毒	-12947
亦冇	-12948
佢所	-12949
先係	-12950
入住	-12951
其時	-12952
列寧	-12953
前途	-12954
動脈	-12955
動量	-12956
午夜	-12957
去打	-12958
口感	-12959
和尚	-12960
唔妥	-12961
嗌咗	-12962
嘅陳	-12963
團購	-12964
壽命	-12965
大國	-12966
大隊	-12967
定喺	-12968
宴會	-12969
容器	-12970
山市	-12971
工場	-12972
幫過	-12973
度做	-12974
拿馬	-12975
推舉	-12976
插曲	-12977
搞搞	-12978
搵你	-12979
搵返	-12980
播音	-12981
政改	-12982
教派	-12983
文武	-12984
明清	-12985
杜拜	-12986
梵蒂	-12987
死嘅	-12988
比高	-12989
汗國	-12990
熟食	-12991
環路	-12992
用字	-12993
畫畫	-12994
異形	-12995
登場	-12996
矮星	-12997
禪師	-12998
私營	-12999
緊密	-13000
翠珊	-13001
職能	-13002
背面	-13003
臨床	-13004
船隻	-13005
行使	-13006
說服	-13007
變法	-13008
跌落	-13009
車同	-13010
送院	-13011
過啊	-13012
鄭和	-13013
配樂	-13014
銀經	-13015
銀緯	-13016
鎮嘅	-13017
長短	-13018
門徒	-13019
靜脈	-13020
頒授	-13021
食糊	-13022
飽和	-13023
點擊	-13024
點講	-13025
龍虎	-13026
(),	-13027
/。。	-13028
108	-13029
113	-13030
▁2,	-13031
▁;)	-13032
▁去過	-13033
▁古典	-13034
▁故此	-13035
▁有咩	-13036
▁東北	-13037
三十六	-13038
但亦有	-13039
係瑞士	-13040
內容係	-13041
冇咗嘅	-13042
反對黨	-13043
可以令	-13044
史學家	-13045
啊我話	-13046
嘅人口	-13047
嘅罰錢	-13048
嘅表現	-13049
型肝炎	-13050
威尼斯	-13051
將原本	-13052
對中國	-13053
就做咗	-13054
年參選	-13055
年通車	-13056
幾錢啊	-13057
指一個	-13058
收視率	-13059
收錄喺	-13060
教會嘅	-13061
昆士蘭	-13062
朱元璋	-13063
歐洲嘅	-13064
發出嘅	-13065
發明嘅	-13066
聖約翰	-13067
至下晝	-13068
萬港元	-13069
號期間	-13070
表面嘅	-13071
西北到	-13072
踩單車	-13073
都唔識	-13074
都未必	-13075
音樂嘅	-13076
1924	-13077
1942	-13078
4000	-13079
之中嘅第	-13080
出嘅一款	-13081
北到南排	-13082
只係理論	-13083
廣播公司	-13084
廣播電台	-13085
族自治州	-13086
最出名係	-13087
社會福利	-13088
系咁㗎啦	-13089
道係香港	-13090
阿塞拜疆	-13091
(2010	-13092
▁1957	-13093
▁家下係各	-13094
係香港一地	-13095
係香港演員	-13096
收費區有好多	-13097
跟文章數量計	-13098
交水電費同交通嘅罰錢	-13099
▁家下係各語言嘅維基百科計劃中	-13100
,0	-13101
▁賣	-13102
不良	-13103
之名	-13104
亦無	-13105
京師	-13106
佢入	-13107
係陳	-13108
修建	-13109
傳記	-13110
元洲	-13111
兩場	-13112
冠名	-13113
出局	-13114
出錯	-13115
列斯	-13116
匯報	-13117
口水	-13118
古今	-13119
各式	-13120
周期	-13121
嘅開	-13122
國營	-13123
地同	-13124
士坦	-13125
奪命	-13126
始祖	-13127
定時	-13128
室外	-13129
富士	-13130
山村	-13131
左近	-13132
希爾	-13133
帶到	-13134
幽默	-13135
幾大	-13136
廚師	-13137
強國	-13138
強迫	-13139
得分	-13140
得啊	-13141
懸掛	-13142
我對	-13143
承擔	-13144
抑制	-13145
排除	-13146
探討	-13147
搞啊	-13148
放工	-13149
政制	-13150
效用	-13151
教書	-13152
服飾	-13153
未經	-13154
果汁	-13155
樓層	-13156
檔同	-13157
永安	-13158
港九	-13159
漏洞	-13160
直角	-13161
真空	-13162
私有	-13163
第廿	-13164
紅豆	-13165
維利	-13166
羊肉	-13167
股市	-13168
華街	-13169
螢幕	-13170
衙前	-13171
解剖	-13172
謚號	-13173
軍校	-13174
輕軌	-13175
通往	-13176
進展	-13177
進度	-13178
配置	-13179
釜山	-13180
開去	-13181
馬會	-13182
馬爾	-13183
龍蝦	-13184
450	-13185
:45	-13186
▁人地	-13187
▁十一	-13188
▁荷蘭	-13189
▁酒店	-13190
三文治	-13191
中學校	-13192
交響曲	-13193
人同埋	-13194
但係要	-13195
你唔系	-13196
做總站	-13197
兩個字	-13198
兩大類	-13199
副書記	-13200
加速度	-13201
史密夫	-13202
啊咁樣	-13203
嘅一隻	-13204
嘅人類	-13205
嘅廣州	-13206
嘅形象	-13207
嘅消息	-13208
天后宮	-13209
尖東站	-13210
就比較	-13211
年夏天	-13212
廣東人	-13213
後來嘅	-13214
我講野	-13215
或其他	-13216
所講嘅	-13217
月初二	-13218
月推出	-13219
林憶蓮	-13220
梵蒂岡	-13221
為中心	-13222
稱呼做	-13223
立法院	-13224
節度使	-13225
統計學	-13226
航站樓	-13227
行通道	-13228
起上嚟	-13229
踢中場	-13230
輸咗畀	-13231
重喺度	-13232
重未有	-13233
高爾夫	-13234
!」。。	-13235
0000	-13236
▁係中國	-13237
▁即系話	-13238
▁愛爾蘭	-13239
佛羅里達	-13240
原產地喺	-13241
可以用來	-13242
同時亦係	-13243
地方政府	-13244
基本藝人	-13245
屬嘅一種	-13246
廣播電視	-13247
最後一日	-13248
標準時間	-13249
歐亞大陸	-13250
用嘅語言	-13251
英國皇家	-13252
足球賽事	-13253
阿拉伯文	-13254
鹿島鹿角	-13255
麗的電視	-13256
▁1962	-13257
係中國江西	-13258
係中國湖北	-13259
係大韓民國	-13260
係英國英倫	-13261
神經細胞嘅	-13262
醫院管理局	-13263
諾貝爾文學獎	-13264
係退役日本足球員	-13265
▁想	-13266
▁皇	-13267
▁鹽	-13268
、9	-13269
一聲	-13270
上堂	-13271
不利	-13272
中藥	-13273
了喔	-13274
事宜	-13275
五仙	-13276
係比	-13277
借錢	-13278
分到	-13279
分辨	-13280
十點	-13281
去世	-13282
台銘	-13283
各省	-13284
各級	-13285
呢家	-13286
咩啦	-13287
哈佛	-13288
因數	-13289
埋啲	-13290
域名	-13291
塞俄	-13292
多謝	-13293
天花	-13294
媒介	-13295
存器	-13296
宋代	-13297
寶麗	-13298
寺廟	-13299
對眼	-13300
就加	-13301
就收	-13302
就業	-13303
幾人	-13304
庫曼	-13305
愛的	-13306
慧卿	-13307
成語	-13308
我仲	-13309
拆遷	-13310
捲脷	-13311
放落	-13312
教導	-13313
斑點	-13314
斯理	-13315
星空	-13316
時針	-13317
曲線	-13318
會俾	-13319
松本	-13320
條河	-13321
森美	-13322
步兵	-13323
殭屍	-13324
每逢	-13325
沙俄	-13326
洪武	-13327
派咗	-13328
流失	-13329
熒光	-13330
特種	-13331
猶大	-13332
當晚	-13333
竹園	-13334
粒鐘	-13335
粵曲	-13336
經由	-13337
羅夫	-13338
而無	-13339
華麗	-13340
行駛	-13341
衰落	-13342
要畀	-13343
訂咗	-13344
記低	-13345
買嘅	-13346
起訴	-13347
身材	-13348
車頭	-13349
通風	-13350
連線	-13351
邊疆	-13352
部署	-13353
鎖匙	-13354
降級	-13355
飯堂	-13356
麻麻	-13357
)、「	-13358
1.2	-13359
119	-13360
▁佐治	-13361
▁呢座	-13362
▁國家	-13363
▁會議	-13364
一定會	-13365
一直都	-13366
三叉戟	-13367
上古音	-13368
上次我	-13369
佢個名	-13370
佢曾經	-13371
係依家	-13372
個樣似	-13373
召集人	-13374
各方面	-13375
唔穩定	-13376
啊或者	-13377
喺沙田	-13378
嘅核心	-13379
嘅規定	-13380
國防部	-13381
填海區	-13382
安東尼	-13383
展覽館	-13384
年上任	-13385
成日喺	-13386
教科書	-13387
新九龍	-13388
新技術	-13389
旅行團	-13390
月先至	-13391
月初三	-13392
月廿九	-13393
有人叫	-13394
本嚟係	-13395
東印度	-13396
查理斯	-13397
海南島	-13398
清政府	-13399
生產力	-13400
盃決賽	-13401
石排灣	-13402
科學城	-13403
第三大	-13404
第十五	-13405
索馬里	-13406
聖公宗	-13407
薩維根	-13408
蝙蝠俠	-13409
踢後衞	-13410
踢館賽	-13411
銀行嘅	-13412
音樂同	-13413
▁學校喺	-13414
▁植株高	-13415
令到佢哋	-13416
先至搵到	-13417
去邊度啊	-13418
呢個節目	-13419
塞俄比亞	-13420
安全指引	-13421
建築面積	-13422
拼音方案	-13423
方便乘客	-13424
星官之一	-13425
暫停開放	-13426
最古老嘅	-13427
比賽入面	-13428
清談節目	-13429
盛岡仙鶴	-13430
羊城八景	-13431
藝術中心	-13432
蘇門答臘	-13433
越秀區嘅	-13434
▁有一到四	-13435
位置喺銀經	-13436
係泰國一個	-13437
民主共和國	-13438
規模排名響	-13439
都系咁㗎啦	-13440
出名作品包括	-13441
北九州向日葵	-13442
▁有一到四等星	-13443
係中國廣西桂林	-13444
係香港商業電台	-13445
係香港女模特兒	-13446
奧斯卡金像獎最佳	-13447
專用𨋢往返月台都得	-13448
7.	-13449
ск	-13450
▁崔	-13451
▁易	-13452
▁粒	-13453
▁血	-13454
▁錫	-13455
▁陽	-13456
▁霜	-13457
▁霧	-13458
三星	-13459
上一	-13460
不知	-13461
中外	-13462
之神	-13463
五星	-13464
亞目	-13465
佢無	-13466
來睇	-13467
做攞	-13468
先喺	-13469
先天	-13470
冇事	-13471
再去	-13472
再由	-13473
利街	-13474
動機	-13475
卡迪	-13476
參數	-13477
口罩	-13478
同行	-13479
否定	-13480
啊嗯	-13481
嘉慕	-13482
嚟愈	-13483
嚟查	-13484
坐船	-13485
場館	-13486
外語	-13487
大哥	-13488
大鵬	-13489
女友	-13490
好抵	-13491
孔雀	-13492
宜蘭	-13493
富力	-13494
左翼	-13495
幾千	-13496
廣珠	-13497
強大	-13498
恩平	-13499
懷孕	-13500
接待	-13501
改制	-13502
故障	-13503
救返	-13504
敵方	-13505
數以	-13506
星嶺	-13507
昭和	-13508
有六	-13509
有寫	-13510
梧桐	-13511
治所	-13512
法拉	-13513
泰文	-13514
流亡	-13515
流派	-13516
清晰	-13517
滿族	-13518
煬帝	-13519
男友	-13520
當佢	-13521
瘋狂	-13522
相通	-13523
睇得	-13524
競逐	-13525
粉紅	-13526
羅德	-13527
而名	-13528
聯同	-13529
腐敗	-13530
舊墟	-13531
航海	-13532
萬有	-13533
落雪	-13534
號因	-13535
行程	-13536
表揚	-13537
被殺	-13538
諡號	-13539
謀殺	-13540
變左	-13541
起成	-13542
踢緊	-13543
軒尼	-13544
近期	-13545
遍及	-13546
野外	-13547
雨水	-13548
青磚	-13549
革新	-13550
黃家	-13551
▁22	-13552
▁嗰陣	-13553
▁就算	-13554
▁旺角	-13555
▁明朝	-13556
▁首先	-13557
亦開始	-13558
入邊嘅	-13559
分階段	-13560
同時係	-13561
名突圍	-13562
唔好啊	-13563
唔知佢	-13564
嘅日子	-13565
嘅條件	-13566
嘉樂庇	-13567
多用途	-13568
大道南	-13569
天然氣	-13570
專營權	-13571
廣東嘅	-13572
形式嘅	-13573
影響而	-13574
從業員	-13575
愈嚟愈	-13576
打職業	-13577
括號括	-13578
會搞到	-13579
李登輝	-13580
東北面	-13581
畀人睇	-13582
當時係	-13583
系咪先	-13584
萬年前	-13585
行動黨	-13586
調味料	-13587
起咗個	-13588
踢前鋒	-13589
過唔少	-13590
酋長國	-13591
除咗係	-13592
""),	-13593
▁我老公	-13594
▁第一次	-13595
一般都係	-13596
係中國嘅	-13597
個人電腦	-13598
喺公元前	-13599
大韓民國	-13600
女子中學	-13601
我唔記得	-13602
批發市場	-13603
新畿內亞	-13604
最主要嘅	-13605
白俄羅斯	-13606
資本主義	-13607
車站大堂	-13608
▁1964	-13609
代表冇經過	-13610
係中國貴州	-13611
古典芭蕾舞	-13612
地鐵嘅路線	-13613
數據唔確定	-13614
三級歷史建築	-13615
係香港男藝人	-13616
只係理論推測	-13617
年歐洲足協盃	-13618
代表冇經過實驗	-13619
司係日本足球員	-13620
係土耳其嘅其中一個省	-13621
年為日本女子足球代表隊出場	-13622
座係家下八十八西洋星座之一	-13623
"(	-13624
▁“	-13625
▁妖	-13626
▁姬	-13627
▁字	-13628
▁湖	-13629
▁萊	-13630
▁見	-13631
▁貓	-13632
▁走	-13633
▁辛	-13634
▁頂	-13635
一分	-13636
一只	-13637
一斤	-13638
下層	-13639
下跌	-13640
中超	-13641
人啊	-13642
保養	-13643
做藥	-13644
光碟	-13645
克勞	-13646
兩名	-13647
公轉	-13648
剩係	-13649
創刊	-13650
千克	-13651
博彩	-13652
友情	-13653
史提	-13654
同心	-13655
向外	-13656
唔明	-13657
唔變	-13658
售賣	-13659
嗮啦	-13660
嘅老	-13661
器材	-13662
回復	-13663
圍村	-13664
外線	-13665
外觀	-13666
大典	-13667
大軍	-13668
天樂	-13669
媽咪	-13670
媽閣	-13671
安琪	-13672
尾嘅	-13673
師生	-13674
心目	-13675
惠福	-13676
意式	-13677
成身	-13678
打完	-13679
技工	-13680
指責	-13681
排長	-13682
摩打	-13683
改行	-13684
文娛	-13685
新型	-13686
日漸	-13687
書信	-13688
最深	-13689
未夠	-13690
本部	-13691
核酸	-13692
樖樹	-13693
歷任	-13694
民運	-13695
河谷	-13696
海港	-13697
海角	-13698
淨化	-13699
火蟲	-13700
爆出	-13701
現在	-13702
現址	-13703
由前	-13704
盈科	-13705
米版	-13706
維奇	-13707
維珍	-13708
網景	-13709
色素	-13710
英祖	-13711
英里	-13712
藏緬	-13713
蘭州	-13714
街邊	-13715
西漢	-13716
見解	-13717
變音	-13718
越國	-13719
過境	-13720
配搭	-13721
重傷	-13722
銀牌	-13723
錯嘅	-13724
除外	-13725
雙數	-13726
預言	-13727
馬可	-13728
馬師	-13729
,20	-13730
-12	-13731
▁以上	-13732
▁厘米	-13733
▁尋晚	-13734
▁標準	-13735
▁第四	-13736
▁約翰	-13737
▁經濟	-13738
一九九	-13739
上落班	-13740
係一款	-13741
入面係	-13742
十二個	-13743
十幾年	-13744
吉隆坡	-13745
同政府	-13746
同臺灣	-13747
名以內	-13748
和平獎	-13749
唔會有	-13750
嘅女仔	-13751
嘅存在	-13752
嘅數值	-13753
嘅範圍	-13754
嘅組織	-13755
嘅老婆	-13756
嘅諗法	-13757
好少可	-13758
婆羅洲	-13759
年世界	-13760
年左右	-13761
我同我	-13762
有一條	-13763
李世民	-13764
沙尼亞	-13765
無論係	-13766
特色係	-13767
珠江口	-13768
第一張	-13769
第三輪	-13770
賣咗畀	-13771
隊出場	-13772
點零鍾	-13773
主要包括	-13774
係星加坡	-13775
係葡萄牙	-13776
包括香港	-13777
單程車票	-13778
塞浦路斯	-13779
成功當選	-13780
注音符號	-13781
濕地公園	-13782
私人住宅	-13783
第一時間	-13784
線網規劃	-13785
落葉喬木	-13786
都會用到	-13787
頭尾班車	-13788
香港市民	-13789
,1981	-13790
加泰隆尼亞	-13791
參議院議員	-13792
常務委員會	-13793
皇后大道中	-13794
▁舉個例說明	-13795
南去到北嚟排嘅	-13796
年太平洋颱風季	-13797
乙組職業足球聯賽	-13798
甲組足球聯賽球隊	-13799
收費區有好多部扶手電梯同樓梯	-13800
_7	-13801
▁既	-13802
▁狼	-13803
▁草	-13804
▁黐	-13805
一三	-13806
一等	-13807
七號	-13808
三等	-13809
下個	-13810
中斷	-13811
亞科	-13812
但因	-13813
停泊	-13814
停電	-13815
催化	-13816
傷者	-13817
全資	-13818
公山	-13819
冇毛	-13820
利安	-13821
則天	-13822
化工	-13823
南端	-13824
原型	-13825
叫阿	-13826
合肥	-13827
同石	-13828
呢季	-13829
唔郁	-13830
唱嘅	-13831
嘅喔	-13832
均衡	-13833
基建	-13834
場景	-13835
外牆	-13836
天主	-13837
天鴿	-13838
夾住	-13839
客觀	-13840
底嘅	-13841
推遲	-13842
換成	-13843
搞亂	-13844
摩亞	-13845
攞要	-13846
日喺	-13847
晚期	-13848
普世	-13849
期限	-13850
未到	-13851
李璟	-13852
村名	-13853
林寺	-13854
歲就	-13855
民俗	-13856
派遣	-13857
為例	-13858
牌嘅	-13859
牛仔	-13860
畀個	-13861
真名	-13862
神仙	-13863
筆記	-13864
糧食	-13865
置業	-13866
胡椒	-13867
臣道	-13868
英法	-13869
董卓	-13870
蘇軾	-13871
要佢	-13872
語法	-13873
諾夫	-13874
貫穿	-13875
起兵	-13876
跨國	-13877
較少	-13878
返返	-13879
通貨	-13880
連結	-13881
道夫	-13882
遠遠	-13883
部同	-13884
都督	-13885
金花	-13886
長壽	-13887
開闢	-13888
間諜	-13889
雙重	-13890
青團	-13891
香鯨	-13892
馬上	-13893
馬斯	-13894
骨灰	-13895
魯斯	-13896
黑人	-13897
(,,	-13898
▁呢部	-13899
▁東涌	-13900
仍然有	-13901
係大月	-13902
十七年	-13903
南海郡	-13904
同埋佢	-13905
同埋有	-13906
同遊客	-13907
呢一個	-13908
唔緊要	-13909
嘅兩個	-13910
嘅政府	-13911
嘅政策	-13912
嘅風格	-13913
基礎上	-13914
好出名	-13915
尤其是	-13916
就係用	-13917
尼德蘭	-13918
幼兒園	-13919
得好快	-13920
心臟病	-13921
我可以	-13922
所用嘅	-13923
改變咗	-13924
月廿三	-13925
月廿八	-13926
期節目	-13927
植物同	-13928
油蔴地	-13929
特殊嘅	-13930
生產商	-13931
紅磡站	-13932
而且係	-13933
花地瑪	-13934
號發行	-13935
號開業	-13936
螢火蟲	-13937
被發現	-13938
身體嘅	-13939
軒尼詩	-13940
都要成	-13941
關係嘅	-13942
隔籬嘅	-13943
音樂節	-13944
風格嘅	-13945
馬其頓	-13946
1918	-13947
▁6。。	-13948
▁》、《	-13949
▁喂你好	-13950
▁好似係	-13951
係指一啲	-13952
係日本嘅	-13953
公共巴士	-13954
可以搵到	-13955
可以通過	-13956
唔系唔系	-13957
國語專輯	-13958
大學教授	-13959
奇妙電視	-13960
好唔好啊	-13961
絕大部份	-13962
自然科學	-13963
阿爸阿媽	-13964
打電話畀我	-13965
號開始營運	-13966
金澤薩維根	-13967
括號括係代表	-13968
控股有限公司	-13969
查地鐵嘅路線	-13970
點喺湖南衛視播出	-13971
站係廣州地鐵嘅車站	-13972
而用咗括號括係代表	-13973
代表冇經過實驗嘅證明	-13974
由康樂及文化事務署管理	-13975
而用咗括號括係代表數據唔確定	-13976
2:	-13977
▁台	-13978
▁賽	-13979
▁遠	-13980
▁邱	-13981
▁酒	-13982
一派	-13983
七世	-13984
伴奏	-13985
但就	-13986
停用	-13987
債券	-13988
先將	-13989
克朗	-13990
兩件	-13991
八大	-13992
初選	-13993
勝負	-13994
可行	-13995
呢帶	-13996
哈里	-13997
喂你	-13998
單打	-13999
喺喺	-14000
嘅你	-14001
嘉靖	-14002
執咗	-14003
外號	-14004
外表	-14005
大啲	-14006
大字	-14007
女嘅	-14008
好食	-14009
嫌疑	-14010
學宮	-14011
就分	-14012
尼日	-14013
山雅	-14014
川家	-14015
帝汶	-14016
廣園	-14017
影業	-14018
徒弟	-14019
思維	-14020
恐龍	-14021
我睇	-14022
拼寫	-14023
指嘅	-14024
接力	-14025
旋翼	-14026
日間	-14027
早排	-14028
昂坪	-14029
月俾	-14030
月娥	-14031
森堡	-14032
榮獲	-14033
河畔	-14034
洗衣	-14035
片係	-14036
破咗	-14037
翻版	-14038
考證	-14039
肥仔	-14040
船廠	-14041
華夏	-14042
落到	-14043
蒙面	-14044
裝住	-14045
西德	-14046
詩經	-14047
講座	-14048
門外	-14049
開封	-14050
陳偉	-14051
露營	-14052
音讀	-14053
額葉	-14054
食到	-14055
餐飲	-14056
點三	-14057
鼓樓	-14058
龍眼	-14059
1.6	-14060
125	-14061
▁28	-14062
▁一八	-14063
▁三角	-14064
▁中村	-14065
▁另有	-14066
▁我就	-14067
▁科學	-14068
▁非洲	-14069
中聯辦	-14070
係東漢	-14071
公司同	-14072
剩低嘅	-14073
副局長	-14074
印度嘅	-14075
即系你	-14076
可以解	-14077
唔鍾意	-14078
嘅土地	-14079
嘅路線	-14080
大將軍	-14081
就即刻	-14082
常見於	-14083
年攞過	-14084
愛滋病	-14085
我唔使	-14086
月初九	-14087
有些少	-14088
果啲咯	-14089
植物園	-14090
機構嘅	-14091
氏家族	-14092
法國嘅	-14093
浙江省	-14094
百分比	-14095
第一日	-14096
第二期	-14097
節假日	-14098
籃球員	-14099
紀念堂	-14100
約莫係	-14101
維也納	-14102
領域嘅	-14103
高架橋	-14104
1911	-14105
▁故仔講	-14106
▁系啊你	-14107
▁點解啊	-14108
一間公立	-14109
一間大學	-14110
亦有好多	-14111
人民醫院	-14112
喺加拿大	-14113
工商管理	-14114
有冇有冇	-14115
東南邊嘅	-14116
樓係月台	-14117
現實世界	-14118
畢業之後	-14119
競爭對手	-14120
等一系列	-14121
過程當中	-14122
道遊樂場	-14123
阿爾卑斯	-14124
電腦程式	-14125
,1978	-14126
20:00	-14127
▁1931	-14128
▁聽到聽到	-14129
係日本東京	-14130
西北到東南	-14131
係大日本帝國	-14132
地鐵嘅安全指引	-14133
▁*	-14134
▁校	-14135
▁熊	-14136
▁貴	-14137
▁錦	-14138
▁鹿	-14139
▁麗	-14140
上空	-14141
中立	-14142
主音	-14143
人事	-14144
但又	-14145
個縣	-14146
倫理	-14147
光孝	-14148
具備	-14149
冇噉	-14150
冬瓜	-14151
出站	-14152
制作	-14153
創下	-14154
創世	-14155
劃入	-14156
動能	-14157
十足	-14158
南山	-14159
南朝	-14160
南靠	-14161
反共	-14162
句麗	-14163
史書	-14164
合資	-14165
向後	-14166
咁做	-14167
咯你	-14168
咯咁	-14169
啊去	-14170
啲講	-14171
單詞	-14172
圓周	-14173
埼玉	-14174
天井	-14175
姐妹	-14176
嬰兒	-14177
子同	-14178
學府	-14179
官守	-14180
宰相	-14181
將由	-14182
就任	-14183
巡司	-14184
帶隊	-14185
年春	-14186
庇護	-14187
我見	-14188
攻佔	-14189
攻陷	-14190
救生	-14191
日內	-14192
星輝	-14193
暢銷	-14194
欣澳	-14195
歲月	-14196
氏族	-14197
河東	-14198
泊車	-14199
泰山	-14200
海馬	-14201
清熱	-14202
湖路	-14203
溥儀	-14204
潮汕	-14205
烈風	-14206
獎章	-14207
瓶座	-14208
盆景	-14209
盈盈	-14210
直屬	-14211
睇埋	-14212
神像	-14213
租界	-14214
稍微	-14215
米粉	-14216
系你	-14217
羣島	-14218
群馬	-14219
而要	-14220
色情	-14221
葫蘆	-14222
角路	-14223
諺文	-14224
諾撒	-14225
講佢	-14226
識咗	-14227
議事	-14228
買家	-14229
軍方	-14230
返咗	-14231
遊牧	-14232
過檔	-14233
避難	-14234
都都	-14235
重同	-14236
閘門	-14237
防火	-14238
靜岡	-14239
預料	-14240
預科	-14241
頒佈	-14242
頒布	-14243
104	-14244
230	-14245
▁1.	-14246
▁中環	-14247
▁消防	-14248
▁隨著	-14249
一個大	-14250
主題係	-14251
之一嘅	-14252
事實係	-14253
你講野	-14254
係一名	-14255
個模型	-14256
價值觀	-14257
冇乜嘢	-14258
十四卦	-14259
十字架	-14260
同月台	-14261
啊佢話	-14262
問題而	-14263
嘅女人	-14264
嘅特點	-14265
嘅行政	-14266
好似話	-14267
對香港	-14268
就係佢	-14269
屋企啊	-14270
希特拉	-14271
年同埋	-14272
成功丸	-14273
探險家	-14274
數據庫	-14275
普通嘅	-14276
最後嘅	-14277
最細嘅	-14278
月初十	-14279
植物嘅	-14280
每個人	-14281
比其他	-14282
流行榜	-14283
燒烤場	-14284
牛池灣	-14285
發佈嘅	-14286
第一座	-14287
筷子基	-14288
自助餐	-14289
視網膜	-14290
計算機	-14291
設計同	-14292
返到去	-14293
錄影帶	-14294
集團嘅	-14295
馬來亞	-14296
1914	-14297
▁"",	-14298
▁一九八	-14299
▁之後喺	-14300
▁事發後	-14301
▁但係喺	-14302
一個單位	-14303
主要分佈	-14304
係菲律賓	-14305
兩廣總督	-14306
南斯拉夫	-14307
同加拿大	-14308
完咗之後	-14309
巴勒斯坦	-14310
希臘字母	-14311
年間出任	-14312
是但一個	-14313
智能電話	-14314
英文字母	-14315
號開始到	-14316
負責管理	-14317
▁馬來西亞	-14318
基里爾字母	-14319
廣播電視台	-14320
香港電視網絡	-14321
經濟技術開發區	-14322
係香港特別行政區	-14323
係中國廣東省廣州市嘅	-14324
路係中國廣東廣州嘅東西走向	-14325
):	-14326
▁他	-14327
▁座	-14328
▁曲	-14329
▁池	-14330
▁膠	-14331
▁選	-14332
三省	-14333
三隻	-14334
亦以	-14335
京畿	-14336
佢被	-14337
使徒	-14338
做個	-14339
偵探	-14340
兩組	-14341
冧莊	-14342
出兵	-14343
別名	-14344
割讓	-14345
受過	-14346
唱咗	-14347
城邦	-14348
場面	-14349
大雨	-14350
如來	-14351
官洲	-14352
寨城	-14353
專責	-14354
少見	-14355
就職	-14356
層面	-14357
巨型	-14358
已故	-14359
布朗	-14360
康王	-14361
後日	-14362
必需	-14363
惹嚟	-14364
戰事	-14365
打咗	-14366
投注	-14367
捐款	-14368
換左	-14369
搬入	-14370
故宮	-14371
時係	-14372
李國	-14373
桃花	-14374
橙色	-14375
氣功	-14376
水扁	-14377
決鬥	-14378
沙士	-14379
河內	-14380
泮塘	-14381
洛斯	-14382
派對	-14383
海旁	-14384
海路	-14385
消除	-14386
淡出	-14387
滾石	-14388
燃燒	-14389
狐狸	-14390
甲蟲	-14391
界線	-14392
留言	-14393
監躉	-14394
真相	-14395
稱做	-14396
立委	-14397
納爾	-14398
累計	-14399
肉質	-14400
舅父	-14401
良局	-14402
英王	-14403
荒廢	-14404
落左	-14405
記數	-14406
賞識	-14407
賺錢	-14408
跨越	-14409
跨過	-14410
過街	-14411
鎮龍	-14412
阿婆	-14413
陶宛	-14414
雙人	-14415
震驚	-14416
面頭	-14417
頭村	-14418
香味	-14419
魚蛋	-14420
麒麟	-14421
(12	-14422
▁_5	-14423
▁高橋	-14424
▁黃埔	-14425
下一個	-14426
下面有	-14427
世界語	-14428
中小學	-14429
中間有	-14430
亦跟住	-14431
休憩處	-14432
佢就會	-14433
光合作	-14434
勞動黨	-14435
南部嘅	-14436
又譯做	-14437
反映咗	-14438
受影響	-14439
周圍嘅	-14440
喺入面	-14441
喺大清	-14442
嘅變化	-14443
嚟表達	-14444
大型嘅	-14445
大聯盟	-14446
大都會	-14447
好大聲	-14448
將呢啲	-14449
工作嘅	-14450
應該要	-14451
投票率	-14452
旅遊點	-14453
月初七	-14454
月廿二	-14455
東南角	-14456
梅艷芳	-14457
江澤民	-14458
洗手間	-14459
由澳門	-14460
舊時係	-14461
董事會	-14462
西南角	-14463
變成咗	-14464
鐵路局	-14465
開咗間	-14466
開發嘅	-14467
:00;	-14468
▁2。。	-14469
▁下面係	-14470
▁我覺得	-14471
▁有啲人	-14472
亦係中國	-14473
但係有啲	-14474
俾人叫做	-14475
另一邊係	-14476
客運大樓	-14477
所以佢哋	-14478
攞咗冠軍	-14479
無軌電車	-14480
生物學家	-14481
白雲機場	-14482
睇下到時	-14483
行人隧道	-14484
都唔係好	-14485
電影公司	-14486
香港賽馬	-14487
▁1927	-14488
▁1932	-14489
▁呢個站嘅	-14490
▁呢間公園	-14491
喺中國內地	-14492
拜仁慕尼黑	-14493
21:30-	-14494
▁馬路分開咗	-14495
十大勁歌金曲	-14496
世界巡迴演唱會	-14497
係中華民國臺灣	-14498
社會主義共和國	-14499
中華人民共和國政府	-14500
▁條路順序從南到北排	-14501
_9	-14502
▁佳	-14503
▁園	-14504
▁廟	-14505
▁步	-14506
▁畢	-14507
▁省	-14508
▁葛	-14509
、,	-14510
一單	-14511
一款	-14512
三地	-14513
三面	-14514
上屆	-14515
之歌	-14516
份工	-14517
佐川	-14518
個島	-14519
偉大	-14520
備受	-14521
再見	-14522
冷戰	-14523
出喺	-14524
列做	-14525
勁爆	-14526
北靠	-14527
呢柞	-14528
咪錶	-14529
哥拉	-14530
喺啲	-14531
四人	-14532
四舊	-14533
基亞	-14534
境外	-14535
大事	-14536
大嶼	-14537
奧德	-14538
好興	-14539
孖寶	-14540
字號	-14541
家婆	-14542
審計	-14543
對白	-14544
州話	-14545
巡演	-14546
帽山	-14547
幫人	-14548
得過	-14549
忙啊	-14550
惡化	-14551
想買	-14552
成正	-14553
我喺	-14554
招商	-14555
推銷	-14556
撥款	-14557
會社	-14558
有平	-14559
望月	-14560
末日	-14561
李宗	-14562
東街	-14563
條款	-14564
每月	-14565
比率	-14566
江寧	-14567
泥土	-14568
流過	-14569
浪費	-14570
港灣	-14571
瀝源	-14572
熱潮	-14573
疑似	-14574
發性	-14575
百度	-14576
真理	-14577
睇中	-14578
節氣	-14579
米長	-14580
約旦	-14581
罕見	-14582
者同	-14583
薩拉	-14584
融入	-14585
衰退	-14586
被告	-14587
製嘅	-14588
訂單	-14589
諗過	-14590
講下	-14591
買餸	-14592
賀歲	-14593
軍委	-14594
達爾	-14595
遠嘅	-14596
郡嘅	-14597
鄭州	-14598
釀酒	-14599
隔開	-14600
頭頂	-14601
食咯	-14602
香江	-14603
高啲	-14604
-15	-14605
106	-14606
▁45	-14607
▁事後	-14608
▁佢啲	-14609
▁咁咁	-14610
▁哦佢	-14611
▁小林	-14612
▁得啦	-14613
▁我冇	-14614
▁時間	-14615
▁淨係	-14616
▁獅子	-14617
▁身體	-14618
一個鐘	-14619
之但係	-14620
佢嗰啲	-14621
佢已經	-14622
係古代	-14623
係數學	-14624
個議席	-14625
做一啲	-14626
傳佛教	-14627
共和黨	-14628
再一次	-14629
分別由	-14630
千葉聯	-14631
另外有	-14632
可以揀	-14633
同發展	-14634
咁多日	-14635
喺佢嘅	-14636
嘅人都	-14637
嘅出現	-14638
嘅原則	-14639
塔利班	-14640
夾埋有	-14641
學入面	-14642
希望之	-14643
帶你去	-14644
撒哈拉	-14645
於是就	-14646
景花園	-14647
最常見	-14648
本港台	-14649
東九龍	-14650
正式嘅	-14651
獨有嘅	-14652
由中國	-14653
甲骨文	-14654
畀佢哋	-14655
福建省	-14656
而家啲	-14657
花都區	-14658
連續劇	-14659
▁喺日本	-14660
三國演義	-14661
係愛爾蘭	-14662
同名小說	-14663
年第一次	-14664
旅遊景點	-14665
特殊學校	-14666
,1973	-14667
▁佢曾經喺	-14668
係中國安徽	-14669
嘉樂庇總督	-14670
埃塞俄比亞	-14671
好多時都係	-14672
港珠澳大橋	-14673
長崎成功丸	-14674
一直向南去到	-14675
爲日本隊出場	-14676
空中客車工業	-14677
西北到東南排	-14678
(.	-14679
,"	-14680
7-	-14681
:3	-14682
▁久	-14683
▁姚	-14684
▁灰	-14685
▁考	-14686
下有	-14687
中日	-14688
中秋	-14689
之際	-14690
五日	-14691
交州	-14692
人多	-14693
人馬	-14694
仲喺	-14695
個區	-14696
元件	-14697
八角	-14698
公子	-14699
分枝	-14700
利士	-14701
即將	-14702
去聲	-14703
吉斯	-14704
名思	-14705
吐露	-14706
吞併	-14707
告別	-14708
咪啱	-14709
唐話	-14710
嘅副	-14711
塔雷	-14712
失傳	-14713
奇蹟	-14714
好呢	-14715
好睇	-14716
字型	-14717
學到	-14718
定啊	-14719
尾都	-14720
帶咗	-14721
年秋	-14722
心沙	-14723
必然	-14724
感動	-14725
或缺	-14726
掌管	-14727
揭陽	-14728
搜集	-14729
支那	-14730
施行	-14731
明尼	-14732
會堂	-14733
東靠	-14734
格勒	-14735
條文	-14736
業嘅	-14737
機身	-14738
水利	-14739
法令	-14740
液態	-14741
深刻	-14742
港人	-14743
瀕臨	-14744
營地	-14745
特質	-14746
獎分	-14747
瑪竇	-14748
生前	-14749
由高	-14750
番薯	-14751
發放	-14752
知縣	-14753
砲臺	-14754
碳酸	-14755
空調	-14756
綠雉	-14757
線就	-14758
總長	-14759
聖人	-14760
腺苷	-14761
花紋	-14762
蒸餾	-14763
處死	-14764
製程	-14765
親中	-14766
詩詞	-14767
講求	-14768
讀成	-14769
速遞	-14770
過關	-14771
閘機	-14772
除左	-14773
隊喺	-14774
電報	-14775
飼養	-14776
餐飯	-14777
騎師	-14778
龐大	-14779
747	-14780
▁21	-14781
▁係指	-14782
▁啲人	-14783
▁城市	-14784
▁成員	-14785
▁此後	-14786
▁球會	-14787
一個有	-14788
主席係	-14789
乘佛教	-14790
亦都喺	-14791
佢阿媽	-14792
來源自	-14793
係清朝	-14794
係英文	-14795
公園站	-14796
公民黨	-14797
出入境	-14798
出面嘅	-14799
北向南	-14800
原子彈	-14801
呢度係	-14802
咪睇下	-14803
喺全球	-14804
嘅同名	-14805
嘅地理	-14806
嘅植物	-14807
四周圍	-14808
好緊要	-14809
年上畫	-14810
年嗰時	-14811
打工仔	-14812
最高峰	-14813
月期間	-14814
發源地	-14815
皇帝趙	-14816
真系好	-14817
睇好似	-14818
自己係	-14819
西向東	-14820
西遊記	-14821
諡號叫	-14822
通常有	-14823
鄭月娥	-14824
鐵合併	-14825
鐵路嘅	-14826
開始做	-14827
鹹濕嘢	-14828
▁不過佢	-14829
▁嘅數值	-14830
▁因為佢	-14831
之前嗌過	-14832
人口普查	-14833
係墨西哥	-14834
做咗香港	-14835
其中之一	-14836
加州大學	-14837
協調時間	-14838
呢個角色	-14839
呢條線嘅	-14840
嘅一個町	-14841
射擊遊戲	-14842
岡山綠雉	-14843
嶺南地區	-14844
嶺南大學	-14845
感染個案	-14846
格魯吉亞	-14847
正式開通	-14848
物業管理	-14849
相互作用	-14850
紀念中學	-14851
表演藝術	-14852
農曆新年	-14853
電腦圖像	-14854
...。。	-14855
▁澳門巴士	-14856
入面嘅一條	-14857
全體會議於	-14858
單程車票第	-14859
人工神經網絡	-14860
年亞洲運動會	-14861
捷克斯洛伐克	-14862
香港國際機場	-14863
一直去到北邊嘅	-14864
收費區喺站廳嘅	-14865
效力過大阪飛腳	-14866
屆香港立法會選舉	-14867
▁條路順序從西到東排	-14868
年冬季奧林匹克運動會	-14869
(4	-14870
▁呃	-14871
▁尤	-14872
▁拿	-14873
▁飯	-14874
▁鬼	-14875
㗎嘞	-14876
一堆	-14877
世人	-14878
主機	-14879
亦將	-14880
人名	-14881
但亦	-14882
來港	-14883
係自	-14884
傾斜	-14885
兩棲	-14886
兵庫	-14887
冷卻	-14888
分化	-14889
初初	-14890
前夕	-14891
加班	-14892
北平	-14893
半佬	-14894
另類	-14895
可疑	-14896
右派	-14897
同四	-14898
同地	-14899
同非	-14900
咁早	-14901
咁麼	-14902
唔上	-14903
四強	-14904
大咗	-14905
大增	-14906
天國	-14907
季風	-14908
密嘅	-14909
封信	-14910
導向	-14911
小數	-14912
小鳳	-14913
就越	-14914
工友	-14915
工蜂	-14916
帶走	-14917
式係	-14918
從未	-14919
所講	-14920
拆解	-14921
捐錢	-14922
推介	-14923
搭客	-14924
收音	-14925
木頭	-14926
李嘉	-14927
氯化	-14928
江水	-14929
河水	-14930
法人	-14931
泰坦	-14932
流出	-14933
涵蓋	-14934
港式	-14935
特產	-14936
盡量	-14937
着住	-14938
石柱	-14939
空地	-14940
章程	-14941
紅樓	-14942
紅白	-14943
綠燈	-14944
而上	-14945
耗資	-14946
聯想	-14947
花旦	-14948
萊斯	-14949
處罰	-14950
蜜糖	-14951
表決	-14952
西村	-14953
西靠	-14954
訴訟	-14955
諾曼	-14956
走到	-14957
起屋	-14958
農夫	-14959
遷都	-14960
鄉鎮	-14961
醉酒	-14962
開村	-14963
間距	-14964
間隔	-14965
集成	-14966
雞翼	-14967
颶風	-14968
香蕉	-14969
魔王	-14970
鹹魚	-14971
115	-14972
▁二〇	-14973
▁啊你	-14974
▁所謂	-14975
▁按照	-14976
▁數學	-14977
▁清水	-14978
▁相反	-14979
▁羅馬	-14980
▁西貢	-14981
▁頻道	-14982
世紀尾	-14983
中間偏	-14984
以前嘅	-14985
係木星	-14986
做唔到	-14987
功能嘅	-14988
十幾個	-14989
南沙區	-14990
南面嘅	-14991
博弈者	-14992
可以響	-14993
啊你你	-14994
喺倫敦	-14995
喺大陸	-14996
嗮成個	-14997
嘅使用	-14998
嘅要求	-14999
因爲我	-15000
寶麗金	-15001
或以上	-15002
打破咗	-15003
抹香鯨	-15004
搞咗間	-15005
收購咗	-15006
日日都	-15007
最主要	-15008
最緊要	-15009
月初四	-15010
有得睇	-15011
東路同	-15012
染色體	-15013
棲息地	-15014
比較高	-15015
淡水湖	-15016
演員同	-15017
狀花序	-15018
獎學金	-15019
現代嘅	-15020
畀你聽	-15021
相同嘅	-15022
石油氣	-15023
第十八	-15024
紅血球	-15025
經已有	-15026
美少女	-15027
老夫子	-15028
行道樹	-15029
裏面有	-15030
西面嘅	-15031
設計與	-15032
都唔夠	-15033
都好多	-15034
都認為	-15035
配水庫	-15036
食完飯	-15037
▁佢哋喺	-15038
▁係巴西	-15039
▁又可以	-15040
▁後嚟喺	-15041
世紀開始	-15042
中古音嘅	-15043
九十年代	-15044
二十八宿	-15045
位於新界	-15046
十大中文	-15047
另外重有	-15048
大受歡迎	-15049
平均氣溫	-15050
彼此之間	-15051
服務中心	-15052
東北邊嘅	-15053
站嘅站廳	-15054
終審法院	-15055
臨時政府	-15056
角色扮演	-15057
足球先生	-15058
,1975	-15059
▁1936	-15060
係元素一種	-15061
係右手揸拍	-15062
反修例運動	-15063
遠東運動會	-15064
6.	-15065
▁修	-15066
▁奇	-15067
▁尾	-15068
▁慈	-15069
▁極	-15070
▁秒	-15071
▁糖	-15072
▁銅	-15073
三部	-15074
三門	-15075
上限	-15076
九日	-15077
亦要	-15078
什麼	-15079
伴侶	-15080
但無	-15081
俘虜	-15082
元老	-15083
兩張	-15084
公分	-15085
功率	-15086
北便	-15087
北歐	-15088
北緯	-15089
卡羅	-15090
同楊	-15091
咬人	-15092
哥哥	-15093
唔唔	-15094
啱好	-15095
嘅親	-15096
嘅首	-15097
困擾	-15098
基數	-15099
天光	-15100
安街	-15101
完顏	-15102
家團	-15103
封咗	-15104
對待	-15105
就是	-15106
居然	-15107
市原	-15108
平息	-15109
年死	-15110
形似	-15111
影音	-15112
德嘅	-15113
心情	-15114
戰敗	-15115
手嘅	-15116
打直	-15117
拼係	-15118
撞啱	-15119
擁躉	-15120
放咗	-15121
既係	-15122
日語	-15123
時刻	-15124
會好	-15125
東歐	-15126
松花	-15127
檢驗	-15128
正統	-15129
每位	-15130
水晶	-15131
水果	-15132
法治	-15133
波利	-15134
泳褲	-15135
混淆	-15136
滿文	-15137
濫用	-15138
炒飯	-15139
狀元	-15140
獲頒	-15141
理浩	-15142
痛苦	-15143
癌症	-15144
社保	-15145
系我	-15146
紙牌	-15147
維生	-15148
總結	-15149
而出	-15150
而同	-15151
聲樂	-15152
興盛	-15153
英美	-15154
荔園	-15155
裁決	-15156
賣出	-15157
走私	-15158
超人	-15159
趕走	-15160
郵票	-15161
醫保	-15162
長老	-15163
開拍	-15164
靈活	-15165
題目	-15166
麻省	-15167
0.5	-15168
270	-15169
</>	-15170
_14	-15171
▁_8	-15172
▁工業	-15173
▁我哋	-15174
▁未啊	-15175
▁東南	-15176
一個場	-15177
一條河	-15178
亦都叫	-15179
以前叫	-15180
例如喺	-15181
係唯一	-15182
係因爲	-15183
全名係	-15184
公里長	-15185
分公司	-15186
副總理	-15187
南越國	-15188
只有一	-15189
可能嘅	-15190
可能要	-15191
史上最	-15192
咁樣樣	-15193
嘅宗教	-15194
嘅數量	-15195
嘅顏色	-15196
地區同	-15197
外國語	-15198
大道西	-15199
好多錢	-15200
定義為	-15201
小說家	-15202
就係咁	-15203
就成日	-15204
就最好	-15205
帕塞羅	-15206
我都系	-15207
教育家	-15208
新馬路	-15209
月廿六	-15210
為首嘅	-15211
瑣羅亞	-15212
發表咗	-15213
科學界	-15214
秦始皇	-15215
符號係	-15216
結果喺	-15217
腦電波	-15218
自己個	-15219
英特爾	-15220
荷李活	-15221
西北面	-15222
跟住佢	-15223
進步黨	-15224
郭台銘	-15225
都搵到	-15226
間唔中	-15227
陳慧嫻	-15228
響中國	-15229
▁佢可以	-15230
▁即係話	-15231
▁呢首歌	-15232
▁我聽到	-15233
北京舉行	-15234
好似冇乜	-15235
年改名做	-15236
後置引擎	-15237
成為中國	-15238
文學作品	-15239
新約聖經	-15240
旗下藝人	-15241
自由主義	-15242
蘋果公司	-15243
超級市場	-15244
跟諡號叫	-15245
通常係指	-15246
野生動物	-15247
,1949	-15248
▁1928	-15249
▁1935	-15250
▁1951	-15251
嘅一個概念	-15252
廣州市城市	-15253
有以下呢啲	-15254
瑣羅亞斯德	-15255
畀乘客登記	-15256
花地瑪堂區	-15257
係泰國一個府	-15258
▁乜	-15259
▁任	-15260
▁塞	-15261
▁更	-15262
▁片	-15263
▁紐	-15264
▁舒	-15265
▁芽	-15266
▁菊	-15267
▁裴	-15268
▁鮑	-15269
一樓	-15270
七百	-15271
世凱	-15272
中六	-15273
九百	-15274
亦同	-15275
人叫	-15276
仔啊	-15277
住宿	-15278
佢一	-15279
停運	-15280
六合	-15281
兼有	-15282
列島	-15283
卦象	-15284
句話	-15285
同第	-15286
呢班	-15287
唔順	-15288
喺邊	-15289
嗰晚	-15290
嗰柞	-15291
嘅內	-15292
嘅音	-15293
在線	-15294
塊面	-15295
大戲	-15296
大海	-15297
子孫	-15298
存款	-15299
家政	-15300
富商	-15301
實情	-15302
寶馬	-15303
專上	-15304
導彈	-15305
就知	-15306
就講	-15307
居易	-15308
岸邊	-15309
年華	-15310
序列	-15311
得最	-15312
復仇	-15313
心口	-15314
急性	-15315
折扣	-15316
拔萃	-15317
振盪	-15318
摩擦	-15319
操縱	-15320
放完	-15321
放鬆	-15322
救傷	-15323
晉朝	-15324
晶片	-15325
月由	-15326
有助	-15327
有無	-15328
期乙	-15329
末代	-15330
東晉	-15331
次嘅	-15332
比爾	-15333
水坑	-15334
水師	-15335
沙路	-15336
漢化	-15337
火腿	-15338
爭霸	-15339
牙膏	-15340
盛典	-15341
短途	-15342
系要	-15343
縣同	-15344
繼任	-15345
肉食	-15346
英式	-15347
落山	-15348
蘭科	-15349
蛟河	-15350
襄陽	-15351
請你	-15352
質地	-15353
過世	-15354
重溫	-15355
重疊	-15356
金字	-15357
閉幕	-15358
食咩	-15359
食啦	-15360
馬丁	-15361
馬士	-15362
駱駝	-15363
高官	-15364
齣戲	-15365
龍舟	-15366
109	-15367
▁亦係	-15368
▁卡拉	-15369
▁呢排	-15370
▁呢類	-15371
▁喺度	-15372
▁年代	-15373
▁祠堂	-15374
▁西南	-15375
▁電子	-15376
▁風月	-15377
、12	-15378
中古音	-15379
之中嘅	-15380
九龍東	-15381
仁書院	-15382
但唔係	-15383
你睇到	-15384
係一樣	-15385
係用咗	-15386
再加埋	-15387
利比亞	-15388
十八年	-15389
參與過	-15390
可能系	-15391
同相關	-15392
哩就系	-15393
唔似得	-15394
嘅居民	-15395
嘅思想	-15396
嘅時區	-15397
嘅版本	-15398
嘅物質	-15399
嘅首府	-15400
土庫曼	-15401
塔吉克	-15402
大使館	-15403
小西灣	-15404
屆朝鮮	-15405
得好少	-15406
愉景灣	-15407
我今日	-15408
換獎品	-15409
收到嘅	-15410
政府將	-15411
文學家	-15412
月廿五	-15413
有一定	-15414
條街道	-15415
比較好	-15416
清水灣	-15417
男配角	-15418
而佢哋	-15419
臺灣嘅	-15420
號開張	-15421
西雅圖	-15422
起好嘅	-15423
週期表	-15424
都係有	-15425
都冇咩	-15426
除咗有	-15427
電腦室	-15428
電視臺	-15429
馬利奧	-15430
00。。	-15431
▁我又唔	-15432
▁第二日	-15433
▁而家喺	-15434
《》。。	-15435
呢個地方	-15436
呢張專輯	-15437
喺大嶼山	-15438
嘅足球員	-15439
嚟查獎分	-15440
執行董事	-15441
戰國時期	-15442
拉丁學名	-15443
操作系統	-15444
架空列車	-15445
比高恩斯	-15446
空中巴士	-15447
羅馬傳語	-15448
舊約聖經	-15449
萬人用緊	-15450
越來越多	-15451
都唔一樣	-15452
▁1924	-15453
▁但係由於	-15454
係中國江蘇	-15455
係美國一間	-15456
廣州地鐵薈	-15457
政務司司長	-15458
年嘅美國電影	-15459
頭尾班車同埋	-15460
香港理工大學	-15461
健力士世界紀錄	-15462
年加入無綫電視	-15463
路係中國廣東廣州嘅南北走向	-15464
(8	-15465
:“	-15466
▁丙	-15467
▁尹	-15468
▁慶	-15469
▁托	-15470
▁板	-15471
▁滑	-15472
▁站	-15473
▁陰	-15474
▁齋	-15475
一股	-15476
中書	-15477
之城	-15478
代價	-15479
低咗	-15480
係巴	-15481
係間	-15482
保祿	-15483
偏見	-15484
克林	-15485
六大	-15486
冇用	-15487
凈低	-15488
到前	-15489
加建	-15490
北辰	-15491
北門	-15492
占庭	-15493
卸任	-15494
台語	-15495
司警	-15496
同周	-15497
向住	-15498
咁話	-15499
咸豐	-15500
喺做	-15501
嘅自	-15502
四號	-15503
國都	-15504
圍牆	-15505
執信	-15506
外星	-15507
大熱	-15508
學社	-15509
官涌	-15510
家樂	-15511
專心	-15512
專題	-15513
導航	-15514
尼古	-15515
幸運	-15516
康明	-15517
廿年	-15518
快車	-15519
怪物	-15520
戒嚴	-15521
打下	-15522
拍戲	-15523
招待	-15524
提督	-15525
政局	-15526
會去	-15527
有八	-15528
有話	-15529
林志	-15530
栽培	-15531
模範	-15532
殺害	-15533
氏嘅	-15534
永恆	-15535
減咗	-15536
湘江	-15537
滅咗	-15538
漢奸	-15539
澳巴	-15540
無錫	-15541
煮熟	-15542
燒酒	-15543
爵位	-15544
父親	-15545
牛扒	-15546
白鶴	-15547
系哇	-15548
約有	-15549
細節	-15550
而非	-15551
聲帶	-15552
腳趾	-15553
英寸	-15554
葉綠	-15555
蓋爾	-15556
蕪湖	-15557
號響	-15558
行省	-15559
製藥	-15560
譯本	-15561
負數	-15562
起過	-15563
追佢	-15564
通俗	-15565
進深	-15566
遭遇	-15567
鄧麗	-15568
釋迦	-15569
里奧	-15570
重俾	-15571
金正	-15572
長堤	-15573
關聯	-15574
隻手	-15575
電燈	-15576
項羽	-15577
騷擾	-15578
高宗	-15579
高潮	-15580
1.8	-15581
114	-15582
260	-15583
_11	-15584
▁佢上	-15585
▁保羅	-15586
▁大唐	-15587
▁特別	-15588
▁白雲	-15589
▁雪月	-15590
▁鳳凰	-15591
、18	-15592
一個省	-15593
之後會	-15594
亦係種	-15595
佢重係	-15596
供應商	-15597
十進制	-15598
千幾蚊	-15599
升格為	-15600
喺某啲	-15601
喺荃灣	-15602
嘅例子	-15603
嘅時侯	-15604
嘅產品	-15605
嘅發音	-15606
嘅目標	-15607
嘅精神	-15608
嘅經典	-15609
多數喺	-15610
如果唔	-15611
就唔係	-15612
巨大嘅	-15613
年中國	-15614
年球季	-15615
強颱風	-15616
所以係	-15617
拜占庭	-15618
提供嘅	-15619
摩洛哥	-15620
新安縣	-15621
最大城	-15622
比較細	-15623
河南省	-15624
炮台山	-15625
珠海市	-15626
界入面	-15627
管理學	-15628
經歷過	-15629
總司令	-15630
而得名	-15631
與生活	-15632
載客量	-15633
返去啊	-15634
鐵路線	-15635
點都要	-15636
▁基督教	-15637
▁好多人	-15638
▁將軍澳	-15639
▁演唱會	-15640
▁菲律賓	-15641
▁香港仔	-15642
主要材料	-15643
你返屋企	-15644
先後做過	-15645
動畫電影	-15646
南中國海	-15647
另外一個	-15648
唔同類嘅	-15649
國立大學	-15650
廣東地區	-15651
有啲遊戲	-15652
渣打銀行	-15653
為咗方便	-15654
第二大城	-15655
響香港島	-15656
▁但係有啲	-15657
▁節目主持	-15658
總統選舉響	-15659
長野帕塞羅	-15660
20:00-	-15661
中央人民政府	-15662
位置喺海珠區	-15663
十大中文金曲	-15664
年歐洲國家盃	-15665
文維基百科係維基百科協作計劃嘅	-15666
(-	-15667
ال	-15668
▁只	-15669
▁喬	-15670
▁宣	-15671
▁寫	-15672
▁巨	-15673
▁歲	-15674
▁章	-15675
▁精	-15676
▁莎	-15677
▁軸	-15678
七星	-15679
三家	-15680
上天	-15681
人道	-15682
以致	-15683
你聽	-15684
佢仲	-15685
依靠	-15686
個省	-15687
停刊	-15688
傾偈	-15689
光學	-15690
光澤	-15691
全境	-15692
兩百	-15693
八世	-15694
再生	-15695
冬菇	-15696
出埋	-15697
到死	-15698
前名	-15699
南行	-15700
司儀	-15701
同黑	-15702
呢幾	-15703
咯佢	-15704
唔易	-15705
啊阿	-15706
啦唉	-15707
喔我	-15708
嘅戲	-15709
噉多	-15710
四邑	-15711
團員	-15712
團長	-15713
土生	-15714
地板	-15715
城軌	-15716
塔納	-15717
士柏	-15718
大名	-15719
大白	-15720
大膽	-15721
大關	-15722
央視	-15723
委託	-15724
字面	-15725
就近	-15726
局勢	-15727
崛起	-15728
市同	-15729
康有	-15730
得太	-15731
志強	-15732
忽略	-15733
悟空	-15734
招呼	-15735
指明	-15736
摩爾	-15737
攞個	-15738
改委	-15739
斯曼	-15740
新西	-15741
新路	-15742
早前	-15743
普拉	-15744
晶晶	-15745
條尾	-15746
橋站	-15747
橫琴	-15748
檢察	-15749
歷時	-15750
水族	-15751
洛夫	-15752
溫室	-15753
獨家	-15754
田村	-15755
白人	-15756
盡快	-15757
真嘅	-15758
等多	-15759
紅茶	-15760
組長	-15761
罐頭	-15762
罰款	-15763
而啲	-15764
蠟燭	-15765
行咩	-15766
補償	-15767
解字	-15768
言之	-15769
許多	-15770
語義	-15771
讚岐	-15772
豬扒	-15773
轉讓	-15774
返啲	-15775
返畀	-15776
遇上	-15777
長廊	-15778
附中	-15779
雷諾	-15780
靈感	-15781
韋斯	-15782
願望	-15783
風氣	-15784
餐館	-15785
餘額	-15786
▁人口	-15787
▁伊藤	-15788
▁你要	-15789
▁太和	-15790
▁果日	-15791
▁玩家	-15792
▁社會	-15793
一大柞	-15794
一直冇	-15795
一齊食	-15796
上議院	-15797
九龍西	-15798
代表團	-15799
代言人	-15800
你個仔	-15801
佢果個	-15802
係三國	-15803
係根據	-15804
係瑞典	-15805
俾好多	-15806
全新嘅	-15807
公交車	-15808
冇嘢做	-15809
十二碼	-15810
印度教	-15811
古埃及	-15812
古天樂	-15813
合併咗	-15814
同時又	-15815
同而家	-15816
咁樣嘅	-15817
喺度啊	-15818
嗰條髀	-15819
嘅力量	-15820
嘅就係	-15821
嘅工程	-15822
塔雷薩	-15823
外交官	-15824
大本營	-15825
好耐冇	-15826
安大略	-15827
將呢個	-15828
年曾經	-15829
引入咗	-15830
控制住	-15831
日文嘅	-15832
月廿一	-15833
李小龍	-15834
澤維亞	-15835
物種嘅	-15836
特點係	-15837
王國嘅	-15838
發表嘅	-15839
目的地	-15840
睇香港	-15841
科下面	-15842
第三屆	-15843
簡稱做	-15844
結束咗	-15845
號開播	-15846
角色嘅	-15847
適用於	-15848
長頸鹿	-15849
阿拉斯	-15850
音樂室	-15851
▁"。。	-15852
▁北邊從	-15853
▁另一個	-15854
一定唔會	-15855
一路去到	-15856
上海出世	-15857
不可或缺	-15858
位於香港	-15859
即系即系	-15860
和諧客機	-15861
嘅主題曲	-15862
嘅基礎上	-15863
國家元首	-15864
我未去過	-15865
暑假期間	-15866
有好大嘅	-15867
歷史學家	-15868
歷史文化	-15869
浙江衛視	-15870
熱帶雨林	-15871
現場直播	-15872
英國倫敦	-15873
英國政府	-15874
醫療服務	-15875
電台節目	-15876
▁廣州地鐵	-15877
世界各地嘅	-15878
大多數都係	-15879
由歐洲足協	-15880
町田澤維亞	-15881
道交界開始	-15882
開通咗之後	-15883
馬達加斯加	-15884
▁</>。。	-15885
世界協調時間	-15886
諾貝爾和平獎	-15887
府係泰國一個府	-15888
鋪頭畀乘客買嘢	-15889
係大日本帝國足球員	-15890
-8	-15891
▁ó	-15892
▁伏	-15893
▁傅	-15894
▁吊	-15895
▁喜	-15896
▁指	-15897
▁支	-15898
▁楚	-15899
▁洋	-15900
▁洗	-15901
▁狗	-15902
▁登	-15903
▁館	-15904
一篇	-15905
上皇	-15906
中信	-15907
中意	-15908
中銀	-15909
主線	-15910
九成	-15911
二仔	-15912
二型	-15913
你的	-15914
係啲	-15915
兩塊	-15916
兩屆	-15917
兩萬	-15918
公營	-15919
兵團	-15920
其間	-15921
冠狀	-15922
凈畀	-15923
分别	-15924
南灣	-15925
台慶	-15926
史高	-15927
右上	-15928
合乎	-15929
同和	-15930
吸血	-15931
呢會	-15932
周刊	-15933
咁嘛	-15934
唔食	-15935
唱腔	-15936
嘉烈	-15937
夜間	-15938
大樹	-15939
天生	-15940
妹妹	-15941
定做	-15942
專指	-15943
尚未	-15944
就變	-15945
山腰	-15946
崩潰	-15947
年任	-15948
年搞	-15949
康路	-15950
廈村	-15951
影展	-15952
所寫	-15953
手語	-15954
捉到	-15955
接到	-15956
接報	-15957
提案	-15958
搵個	-15959
撰寫	-15960
擺酒	-15961
攞住	-15962
教廷	-15963
日會	-15964
智障	-15965
曝光	-15966
未未	-15967
格拉	-15968
歌壇	-15969
氣球	-15970
派兵	-15971
海盜	-15972
玄宗	-15973
王嘅	-15974
瑪莉	-15975
盤古	-15976
直立	-15977
租金	-15978
系好	-15979
終結	-15980
編嘅	-15981
縣級	-15982
羅定	-15983
群噉	-15984
聯歡	-15985
萬名	-15986
萬嘅	-15987
葬喺	-15988
解毒	-15989
訂購	-15990
話過	-15991
說法	-15992
講究	-15993
議局	-15994
讀法	-15995
變遷	-15996
豐田	-15997
買野	-15998
足足	-15999
路程	-16000
軍喺	-16001
較多	-16002
輕微	-16003
迫人	-16004
選情	-16005
還是	-16006
部族	-16007
郵件	-16008
醫科	-16009
隻嘅	-16010
雨遮	-16011
雲浮	-16012
電極	-16013
音響	-16014
飛到	-16015
馬利	-16016
駁住	-16017
-18	-16018
1.3	-16019
1.4	-16020
107	-16021
▁--	-16022
▁《》	-16023
▁公元	-16024
▁南宋	-16025
▁同樣	-16026
▁唐人	-16027
▁平時	-16028
▁綫路	-16029
▁霧月	-16030
三十年	-16031
主教練	-16032
之外嘅	-16033
你果個	-16034
佢哋對	-16035
佢果度	-16036
佢阿爸	-16037
係北宋	-16038
係指用	-16039
博覽會	-16040
又叫大	-16041
只係喺	-16042
合資格	-16043
同一啲	-16044
同歐洲	-16045
同澳洲	-16046
哥倫布	-16047
啲風景	-16048
喺中環	-16049
嘅權利	-16050
嘅紀錄	-16051
嘅話就	-16052
四個人	-16053
多數會	-16054
大道東	-16055
好恐怖	-16056
就畫成	-16057
左好多	-16058
市區嘅	-16059
年出版	-16060
張敬軒	-16061
影響咗	-16062
必要嘅	-16063
戰鬥機	-16064
曾志偉	-16065
最大化	-16066
朝早同	-16067
樖嘢嘅	-16068
發改委	-16069
社會黨	-16070
處境劇	-16071
被叫做	-16072
設立嘅	-16073
話都係	-16074
辛苦啊	-16075
都成日	-16076
酒店啊	-16077
雖然係	-16078
1944	-16079
▁后髮座	-16080
▁唔知啊	-16081
▁成條路	-16082
一百年嘅	-16083
主要負責	-16084
係廣東省	-16085
係由香港	-16086
候補委員	-16087
可以直接	-16088
哈利波特	-16089
喺番禺區	-16090
嘅時候呢	-16091
委員會嘅	-16092
客運碼頭	-16093
小姐冠軍	-16094
就可以揀	-16095
攞到冠軍	-16096
有人認為	-16097
法羅群島	-16098
清水灣道	-16099
為咗紀念	-16100
短期記憶	-16101
芭蕾舞團	-16102
行車天橋	-16103
都唔可以	-16104
電影導演	-16105
電視廣告	-16106
1,000	-16107
1:00;	-16108
▁雖然係噉	-16109
▁雖然車站	-16110
全日制中學	-16111
同無綫電視	-16112
國務院總理	-16113
郡嘅一個町	-16114
香港基本法	-16115
世界文化遺產	-16116
屬嘅草本植物	-16117
快速軌道交通	-16118
暫停開放時段	-16119
香港超級聯賽	-16120
二係日本足球員	-16121
嘅會員嚟查獎分	-16122
係香港無綫電視藝員	-16123
係中華人民共和國女子	-16124
日本足球代表隊前成員	-16125
廣州地鐵薈嘅會員嚟查獎分	-16126
-0	-16127
1～	-16128
_6	-16129
▁ö	-16130
▁』	-16131
▁凡	-16132
▁密	-16133
▁少	-16134
▁帶	-16135
▁彖	-16136
▁應	-16137
▁民	-16138
▁色	-16139
▁蒲	-16140
▁調	-16141
一眾	-16142
三層	-16143
上街	-16144
中游	-16145
中興	-16146
乳糖	-16147
乳豬	-16148
事嘅	-16149
任意	-16150
份係	-16151
佈置	-16152
住所	-16153
係漢	-16154
修士	-16155
光速	-16156
全家	-16157
兩制	-16158
兩粒	-16159
兩類	-16160
八千	-16161
公國	-16162
冰洋	-16163
加個	-16164
北道	-16165
北非	-16166
南音	-16167
原生	-16168
台嘅	-16169
合署	-16170
呂宋	-16171
咁用	-16172
啊又	-16173
啟播	-16174
喺江	-16175
嘅下	-16176
嘅手	-16177
嘅相	-16178
嘅食	-16179
坐監	-16180
培英	-16181
大全	-16182
娃娃	-16183
子集	-16184
孤立	-16185
學業	-16186
學費	-16187
差價	-16188
已婚	-16189
平坦	-16190
度啦	-16191
引申	-16192
強化	-16193
彎曲	-16194
得佢	-16195
得個	-16196
性感	-16197
戲班	-16198
打緊	-16199
打街	-16200
打通	-16201
抒情	-16202
投影	-16203
改到	-16204
明文	-16205
星系	-16206
時會	-16207
晚晚	-16208
杏花	-16209
杜鵑	-16210
條紋	-16211
極為	-16212
槍擊	-16213
樂曲	-16214
樓上	-16215
正正	-16216
決心	-16217
沖積	-16218
海戰	-16219
海牛	-16220
渦輪	-16221
照常	-16222
熱鬧	-16223
環綫	-16224
異性	-16225
簽發	-16226
紅館	-16227
線條	-16228
縣市	-16229
罪案	-16230
羽狀	-16231
膝頭	-16232
藉住	-16233
西鐵	-16234
規管	-16235
訂立	-16236
詞人	-16237
變更	-16238
負荷	-16239
起草	-16240
跑步	-16241
返回	-16242
遺蹟	-16243
邴原	-16244
都普	-16245
重開	-16246
銅牌	-16247
長約	-16248
門診	-16249
開過	-16250
防衛	-16251
隨之	-16252
餵佢	-16253
高手	-16254
鴻章	-16255
黑晒	-16256
▁人民	-16257
▁及後	-16258
▁古代	-16259
▁彖曰	-16260
▁最近	-16261
▁決賽	-16262
▁花屬	-16263
▁象曰	-16264
▁長沙	-16265
三十幾	-16266
上一個	-16267
之後先	-16268
係地球	-16269
係指由	-16270
係蘇聯	-16271
價錢啊	-16272
冥王星	-16273
分布喺	-16274
升降機	-16275
去廣州	-16276
可分為	-16277
台灣嘅	-16278
合作嘅	-16279
吐露港	-16280
呢兩種	-16281
呢家嘢	-16282
咗中國	-16283
啲乘客	-16284
喺德國	-16285
嗌佢做	-16286
嘅人流	-16287
嘅細路	-16288
嘅高度	-16289
因斯坦	-16290
大角嘴	-16291
好重要	-16292
如果要	-16293
字標準	-16294
學術上	-16295
小學同	-16296
年已經	-16297
年發行	-16298
年首次	-16299
幾分鐘	-16300
康明斯	-16301
廣播劇	-16302
成一個	-16303
指揮官	-16304
攞咗第	-16305
旅行啊	-16306
會變成	-16307
月廿七	-16308
服務費	-16309
朝陽區	-16310
此同時	-16311
混血兒	-16312
牡丹江	-16313
獵食者	-16314
發電機	-16315
立陶宛	-16316
等地方	-16317
紐約州	-16318
舊陣時	-16319
蔣中正	-16320
蘿崗區	-16321
號為止	-16322
表現出	-16323
覺得佢	-16324
試過喺	-16325
都好似	-16326
都幾貴	-16327
長方形	-16328
革命軍	-16329
食嗰啲	-16330
首歌曲	-16331
1600	-16332
1917	-16333
1943	-16334
▁不過都	-16335
▁廣東省	-16336
▁第一個	-16337
▁節目喺	-16338
你幾時去	-16339
全國重點	-16340
卦就畫成	-16341
可以寫成	-16342
叱咤樂壇	-16343
嗰個時期	-16344
大規模嘅	-16345
好似聽講	-16346
如果唔係	-16347
孟加拉國	-16348
意識形態	-16349
松本山雅	-16350
森林公園	-16351
民族主義	-16352
清華大學	-16353
減筆寫做	-16354
為咗吸引	-16355
發表聲明	-16356
系咯系咯	-16357
組成部份	-16358
考古學家	-16359
草地球場	-16360
記住卦象	-16361
說文解字	-16362
貨櫃碼頭	-16363
購物中心	-16364
,1958	-16365
,1969	-16366
,1974	-16367
▁1925	-16368
▁武漢肺炎	-16369
係六十四卦	-16370
去邊度玩啊	-16371
年投入服務	-16372
年期間出任	-16373
支廳嘅一個	-16374
職業足球隊	-16375
奪命交通意外	-16376
香港特區政府	-16377
製作嘅時裝電視劇	-16378
▁為咗方便記住卦象	-16379
頭尾班車同埋地鐵嘅安全指引	-16380
▁#	-16381
▁”	-16382
▁嗱	-16383
▁奶	-16384
▁寧	-16385
▁廿	-16386
▁曉	-16387
▁樹	-16388
▁的	-16389
▁穫	-16390
▁義	-16391
▁肥	-16392
▁號	-16393
一中	-16394
一向	-16395
三甲	-16396
之意	-16397
二元	-16398
二路	-16399
人身	-16400
仙子	-16401
佢出	-16402
個孫	-16403
個朵	-16404
假想	-16405
優異	-16406
儲備	-16407
充足	-16408
兒歌	-16409
刪除	-16410
剩餘	-16411
勝出	-16412
北朝	-16413
去呢	-16414
去食	-16415
受人	-16416
同天	-16417
名字	-16418
咁易	-16419
咪咪	-16420
售價	-16421
啲天	-16422
嗌成	-16423
嘅意	-16424
嘅成	-16425
嘅木	-16426
城縣	-16427
多到	-16428
多嘢	-16429
多芬	-16430
威力	-16431
字讀	-16432
完後	-16433
家鄉	-16434
展館	-16435
山仔	-16436
巡遊	-16437
年內	-16438
幾有	-16439
幾部	-16440
幾隻	-16441
引伸	-16442
強風	-16443
忽然	-16444
所得	-16445
抵制	-16446
拘留	-16447
撈亂	-16448
收容	-16449
日月	-16450
有七	-16451
柔佛	-16452
歸屬	-16453
民初	-16454
水生	-16455
沙皇	-16456
法屬	-16457
洲頭	-16458
海景	-16459
減弱	-16460
漢城	-16461
激發	-16462
火炭	-16463
班機	-16464
用詞	-16465
秦朝	-16466
穿越	-16467
突擊	-16468
等你	-16469
紀元	-16470
級數	-16471
索沃	-16472
罪犯	-16473
羅素	-16474
考驗	-16475
而當	-16476
聽過	-16477
若瑟	-16478
薄餅	-16479
行經	-16480
被逼	-16481
西街	-16482
視像	-16483
設嘅	-16484
許願	-16485
話劇	-16486
譴責	-16487
谷地	-16488
軌距	-16489
轉咗	-16490
農林	-16491
近視	-16492
通宵	-16493
達華	-16494
開夏	-16495
閩語	-16496
阿姨	-16497
阿聯	-16498
集資	-16499
零丁	-16500
響應	-16501
頻繁	-16502
髮型	-16503
黑客	-16504
127	-16505
▁_6	-16506
▁「」	-16507
▁佢又	-16508
▁佢重	-16509
▁吉田	-16510
▁工程	-16511
▁渡邊	-16512
▁熱月	-16513
▁牧月	-16514
▁穫月	-16515
▁網絡	-16516
▁而今	-16517
▁自然	-16518
▁花月	-16519
▁芽月	-16520
▁菓月	-16521
▁葡月	-16522
▁表示	-16523
▁透過	-16524
▁附近	-16525
▁雨月	-16526
▁霜月	-16527
▁馬拉	-16528
▁黐線	-16529
一九八	-16530
一百蚊	-16531
不停噉	-16532
主要以	-16533
之後重	-16534
來表示	-16535
係研究	-16536
其餘嘅	-16537
冇所謂	-16538
分音符	-16539
南丫島	-16540
可以去	-16541
可以整	-16542
君主制	-16543
咁樣啊	-16544
喺國際	-16545
嘅單位	-16546
嘅形狀	-16547
嘅角度	-16548
嘅馬路	-16549
多樣性	-16550
夾硬嚟	-16551
好鬼多	-16552
學生卡	-16553
市場嘅	-16554
市市長	-16555
年出世	-16556
影相機	-16557
意味住	-16558
感應器	-16559
手上嘅	-16560
指定嘅	-16561
新人獎	-16562
新專輯	-16563
新時代	-16564
書記處	-16565
有大約	-16566
朝鮮族	-16567
東北角	-16568
機會率	-16569
武則天	-16570
母公司	-16571
河北省	-16572
涉及到	-16573
由廣州	-16574
發生響	-16575
破四舊	-16576
等領域	-16577
紅蛋白	-16578
統一嘅	-16579
而入行	-16580
至今日	-16581
號中午	-16582
行人路	-16583
觀光點	-16584
訊號嘅	-16585
諗住要	-16586
進化論	-16587
都屬於	-16588
酒店住	-16589
錦公路	-16590
1898	-16591
▁丹尼士	-16592
▁之但係	-16593
▁但係要	-16594
▁利物浦	-16595
▁因為噉	-16596
▁尤其喺	-16597
▁星加坡	-16598
世界排名	-16599
之間嘅位	-16600
交叉路口	-16601
冷氣巴士	-16602
到呢個站	-16603
到好犀利	-16604
同亞熱帶	-16605
呢段時間	-16606
單層巴士	-16607
嘅一個屬	-16608
年代中期	-16609
康熙字典	-16610
快樂男聲	-16611
我都想去	-16612
戲劇學院	-16613
接駁巴士	-16614
窩打老道	-16615
粵語專輯	-16616
美國海軍	-16617
萬千星輝	-16618
遊戲程式	-16619
選秀節目	-16620
都城嘉慕	-16621
高等教育	-16622
,1965	-16623
,1976	-16624
▁500,	-16625
▁8859	-16626
到而家為止	-16627
溫哥華白浪	-16628
香港立法會	-16629
一百年嘅世紀	-16630
學校係香港一間	-16631
年嗰一百年嘅世紀	-16632
路係中國廣東佛山	-16633
%、	-16634
··	-16635
▁–	-16636
▁佩	-16637
▁戰	-16638
▁昌	-16639
▁直	-16640
▁茅	-16641
▁藏	-16642
▁角	-16643
〇年	-16644
一番	-16645
一節	-16646
交往	-16647
人均	-16648
什葉	-16649
佢畀	-16650
侵權	-16651
做哩	-16652
克利	-16653
八鄉	-16654
出手	-16655
分爲	-16656
到新	-16657
制訂	-16658
匿埋	-16659
及時	-16660
取決	-16661
古音	-16662
合流	-16663
吉思	-16664
同梁	-16665
呢屆	-16666
唔分	-16667
唔咪	-16668
商貿	-16669
喔你	-16670
嗰間	-16671
嘅力	-16672
嘅李	-16673
嚟去	-16674
回答	-16675
外型	-16676
大宅	-16677
女士	-16678
好長	-16679
妓女	-16680
子係	-16681
子午	-16682
孲𤘅	-16683
宣戰	-16684
宿增	-16685
寓意	-16686
實權	-16687
對決	-16688
帶定	-16689
帶頭	-16690
年青	-16691
座椅	-16692
廢物	-16693
廣電	-16694
心房	-16695
心機	-16696
快活	-16697
恐懼	-16698
戀情	-16699
招募	-16700
拿度	-16701
有哩	-16702
未曾	-16703
棠下	-16704
樓面	-16705
樣辦	-16706
款式	-16707
武打	-16708
水災	-16709
水門	-16710
永泰	-16711
沉積	-16712
河同	-16713
浩然	-16714
添馬	-16715
港姐	-16716
源碼	-16717
溝埋	-16718
煽動	-16719
熱烈	-16720
獲獎	-16721
玻利	-16722
生出	-16723
生育	-16724
產地	-16725
疑犯	-16726
癱瘓	-16727
相隔	-16728
石圍	-16729
硬上	-16730
禁令	-16731
算術	-16732
粵菜	-16733
紅星	-16734
綠籬	-16735
線喺	-16736
羅文	-16737
自閉	-16738
落潭	-16739
著住	-16740
蔓延	-16741
衙門	-16742
詮釋	-16743
詳情	-16744
講緊	-16745
起初	-16746
起名	-16747
車喺	-16748
追蹤	-16749
通勤	-16750
避寒	-16751
邊位	-16752
長隆	-16753
防務	-16754
集嘅	-16755
雷法	-16756
電廠	-16757
首批	-16758
香草	-16759
魯迅	-16760
111	-16761
117	-16762
168	-16763
▁二戰	-16764
▁佢系	-16765
▁另一	-16766
▁天河	-16767
▁季節	-16768
▁山口	-16769
▁系統	-16770
▁阿阿	-16771
乜嘢都	-16772
係一門	-16773
係專門	-16774
係目前	-16775
先至會	-16776
前總統	-16777
包括喺	-16778
十九年	-16779
卡塔爾	-16780
同其它	-16781
同第啲	-16782
同音樂	-16783
名思義	-16784
向東南	-16785
單車徑	-16786
嘅一類	-16787
嘅官方	-16788
嘅最大	-16789
嘅東邊	-16790
嘅特殊	-16791
嘅細佬	-16792
嘅身體	-16793
坐地鐵	-16794
增加咗	-16795
大角咀	-16796
大阪府	-16797
好多都	-16798
對人類	-16799
小部分	-16800
年做咗	-16801
年歷史	-16802
廣泛嘅	-16803
影出來	-16804
成日有	-16805
所以會	-16806
排位賽	-16807
於是喺	-16808
時間性	-16809
最高點	-16810
有人話	-16811
李克勤	-16812
湖南省	-16813
漆咸道	-16814
盛時期	-16815
管理員	-16816
組織同	-16817
而變成	-16818
自由身	-16819
董事局	-16820
藍閃電	-16821
號巴士	-16822
號澳門	-16823
跟住喺	-16824
農作物	-16825
都要啊	-16826
重攞埋	-16827
重有啲	-16828
頭一次	-16829
風雲榜	-16830
高句麗	-16831
▁一九七	-16832
▁你冇去	-16833
▁你都唔	-16834
▁唔清楚	-16835
二次大戰	-16836
五代十國	-16837
但係佢哋	-16838
可以透過	-16839
呢個過程	-16840
咁多人去	-16841
土木工程	-16842
想去睇下	-16843
搖滾樂隊	-16844
星光大道	-16845
林鄭月娥	-16846
環球唱片	-16847
粉嶺公路	-16848
行政區劃	-16849
言論自由	-16850
起好之後	-16851
過街通道	-16852
都可以用	-16853
都想去啊	-16854
都有一個	-16855
醫療輔助	-16856
,<>。。	-16857
▁1922	-16858
▁1934	-16859
▁我上次去	-16860
區域市政局	-16861
嘅人工智能	-16862
有好多唔同	-16863
科技與生活	-16864
立法局議員	-16865
阿爾巴尼亞	-16866
中華基督教會	-16867
香港小姐競選	-16868
巴士奪命交通意外	-16869
屆日本眾議院議員總選舉	-16870
3～	-16871
▁墨	-16872
▁機	-16873
▁炒	-16874
▁煙	-16875
▁男	-16876
▁解	-16877
▁軍	-16878
▁隆	-16879
一道	-16880
下啲	-16881
下旬	-16882
乜鬼	-16883
二手	-16884
互生	-16885
五六	-16886
亞斯	-16887
亦令	-16888
亦好	-16889
以示	-16890
佢想	-16891
侮辱	-16892
信和	-16893
兩度	-16894
八強	-16895
冇晒	-16896
分局	-16897
勝地	-16898
午餐	-16899
可謂	-16900
史詩	-16901
呢我	-16902
問答	-16903
喺晒	-16904
嘅果	-16905
回事	-16906
國徽	-16907
園路	-16908
城寨	-16909
基準	-16910
夥伴	-16911
太監	-16912
好想	-16913
如意	-16914
妙天	-16915
姿態	-16916
字同	-16917
字頭	-16918
宗派	-16919
官兵	-16920
專為	-16921
左咯	-16922
差嘅	-16923
市內	-16924
布甸	-16925
干涉	-16926
廉租	-16927
悖論	-16928
感謝	-16929
成千	-16930
我最	-16931
所知	-16932
扭計	-16933
拘捕	-16934
招生	-16935
招股	-16936
收六	-16937
旁白	-16938
旋處	-16939
是爲	-16940
時喺	-16941
暱稱	-16942
曲風	-16943
曾任	-16944
最耐	-16945
會面	-16946
有種	-16947
有返	-16948
東到	-16949
東至	-16950
梁家	-16951
梨木	-16952
梳士	-16953
極大	-16954
櫻桃	-16955
歐霸	-16956
死於	-16957
段嘅	-16958
毫無	-16959
添啊	-16960
清初	-16961
游擊	-16962
為由	-16963
甲板	-16964
甲級	-16965
病變	-16966
發炎	-16967
的海	-16968
盈利	-16969
砌成	-16970
章第	-16971
等我	-16972
約滿	-16973
線係	-16974
缺憾	-16975
罷免	-16976
翰林	-16977
聖心	-16978
葵興	-16979
衡陽	-16980
表情	-16981
西塱	-16982
要塞	-16983
要夾	-16984
讚賞	-16985
躍頭	-16986
車飛	-16987
連繫	-16988
週圍	-16989
運去	-16990
遷移	-16991
金龍	-16992
錦濤	-16993
開採	-16994
間嘢	-16995
陸路	-16996
隻貓	-16997
雜交	-16998
電纜	-16999
革質	-17000
風行	-17001
養嘅	-17002
高低	-17003
黨派	-17004
鼓手	-17005
116	-17006
121	-17007
129	-17008
▁北極	-17009
▁執導	-17010
▁夜晚	-17011
▁我呀	-17012
▁本來	-17013
▁薯條	-17014
▁車身	-17015
▁音樂	-17016
三國志	-17017
上班啊	-17018
任何人	-17019
但係我	-17020
佐敦道	-17021
佢好大	-17022
佢果啲	-17023
係噉追	-17024
係土星	-17025
係好多	-17026
個學生	-17027
做背景	-17028
免費區	-17029
內部嘅	-17030
前香港	-17031
劉淑儀	-17032
即係指	-17033
又譯聖	-17034
吉思汗	-17035
同埋同	-17036
同埋嗰	-17037
同粵語	-17038
同英文	-17039
哦咁啊	-17040
問題啊	-17041
啱時間	-17042
喺一啲	-17043
喺元朗	-17044
喺從化	-17045
嘅個人	-17046
嘅軍事	-17047
噉上下	-17048
嚟整嘅	-17049
嚮香港	-17050
嚴格嘅	-17051
四五日	-17052
大家鼠	-17053
太空船	-17054
委任做	-17055
定係有	-17056
少年宮	-17057
州刺史	-17058
已成為	-17059
市原聯	-17060
年舉行	-17061
年轉投	-17062
後嚟喺	-17063
意義嘅	-17064
技術嘅	-17065
排第二	-17066
時間同	-17067
會繼續	-17068
有個人	-17069
根據地	-17070
構成嘅	-17071
演出嘅	-17072
第三代	-17073
製造業	-17074
設計局	-17075
贊助商	-17076
運輸聯	-17077
適應啊	-17078
都係細	-17079
都好啊	-17080
陳水扁	-17081
飛機嘅	-17082
點播出	-17083
1800	-17084
▁一九九	-17085
▁係香港	-17086
▁冇啊我	-17087
▁噉就係	-17088
▁系啊咁	-17089
▁聯合國	-17090
▁馬鞍山	-17091
一級學校	-17092
代表人物	-17093
你幾時啊	-17094
係第一個	-17095
六十干支	-17096
十九世紀	-17097
同樣理由	-17098
嗰個時候	-17099
嚟呢個站	-17100
國際足協	-17101
布魯塞爾	-17102
廿五週年	-17103
恒生銀行	-17104
情況之下	-17105
我想睇下	-17106
戰國時代	-17107
數學模型	-17108
東華三院	-17109
民意支持	-17110
滙豐銀行	-17111
生物分類	-17112
社會運動	-17113
福塔雷薩	-17114
美國加州	-17115
萬有引力	-17116
觀景植物	-17117
遊戲設計	-17118
重有一個	-17119
隻遊戲嘅	-17120
香港樂壇	-17121
,1946	-17122
,1972	-17123
00:00	-17124
22:00	-17125
▁哦哦哦哦	-17126
個島式月台	-17127
可以用嚟整	-17128
四十五分鐘	-17129
巴士公司嘅	-17130
年做到而家	-17131
最佳女主角	-17132
響澳門半島	-17133
中古漢語拼音	-17134
可以充羊城通	-17135
感染武漢肺炎	-17136
香港浸會大學	-17137
嘉樂庇總督馬路	-17138
地區都可以搵到	-17139
無綫電視翡翠台	-17140
氹仔嘉樂庇總督馬路	-17141
交通事務局局長林衍新	-17142
係日本東京嘅其中一個	-17143
▁’	-17144
▁仙	-17145
▁俾	-17146
▁勞	-17147
▁塘	-17148
▁性	-17149
▁於	-17150
▁朴	-17151
▁瑞	-17152
▁跳	-17153
一餐	-17154
上午	-17155
不和	-17156
乘機	-17157
二維	-17158
五種	-17159
五金	-17160
人將	-17161
供水	-17162
係喇	-17163
個性	-17164
儘管	-17165
全數	-17166
兩代	-17167
共計	-17168
冇加	-17169
凝土	-17170
制裁	-17171
受咗	-17172
同對	-17173
同山	-17174
呢件	-17175
呢輪	-17176
啲啲	-17177
單純	-17178
嗰套	-17179
嗰次	-17180
嘅氣	-17181
嘅門	-17182
噉平	-17183
四日	-17184
回國	-17185
地道	-17186
坐晒	-17187
壁畫	-17188
壽星	-17189
夫妻	-17190
奮鬥	-17191
女郎	-17192
定論	-17193
專賣	-17194
居留	-17195
屋村	-17196
巡撫	-17197
市值	-17198
幅畫	-17199
年均	-17200
度係	-17201
彰化	-17202
應急	-17203
成班	-17204
拜祭	-17205
按返	-17206
掛牌	-17207
插入	-17208
搞緊	-17209
搵啲	-17210
放映	-17211
敎育	-17212
教訓	-17213
斷斷	-17214
晚年	-17215
景教	-17216
智商	-17217
書展	-17218
有你	-17219
木雕	-17220
本體	-17221
杜拉	-17222
東正	-17223
東邨	-17224
松山	-17225
查詢	-17226
梅窩	-17227
槍手	-17228
民心	-17229
江口	-17230
汪雲	-17231
法學	-17232
派台	-17233
浣熊	-17234
淺水	-17235
溜冰	-17236
無敵	-17237
爾曼	-17238
玩咗	-17239
琉璃	-17240
瑪利	-17241
由劉	-17242
畀左	-17243
發鈔	-17244
盃賽	-17245
真菌	-17246
睇多	-17247
石塘	-17248
石澳	-17249
神奈	-17250
福郡	-17251
科同	-17252
站到	-17253
粒星	-17254
紫棋	-17255
結尾	-17256
經國	-17257
緣故	-17258
縣長	-17259
縱貫	-17260
美學	-17261
而令	-17262
腳板	-17263
自發	-17264
舊稱	-17265
花卉	-17266
英尺	-17267
茉莉	-17268
落埋	-17269
蒸發	-17270
蜂后	-17271
裝有	-17272
角嘴	-17273
計出	-17274
評判	-17275
認定	-17276
起樓	-17277
輪椅	-17278
輾轉	-17279
轉爲	-17280
農田	-17281
退化	-17282
遊艇	-17283
選項	-17284
都長	-17285
鄂圖	-17286
配偶	-17287
醬汁	-17288
鎮江	-17289
零一	-17290
靈糧	-17291
飛鏢	-17292
魔鬼	-17293
點點	-17294
-17	-17295
122	-17296
▁.,	-17297
▁加藤	-17298
▁南海	-17299
▁南非	-17300
▁同一	-17301
▁咩話	-17302
▁天津	-17303
▁日式	-17304
▁神經	-17305
▁都有	-17306
▁隋朝	-17307
一日玩	-17308
主場係	-17309
你要去	-17310
佢亦係	-17311
便利檔	-17312
係現代	-17313
個海度	-17314
億美金	-17315
分別為	-17316
創立咗	-17317
卡馬達	-17318
參選第	-17319
同埋啲	-17320
同歌手	-17321
同非洲	-17322
吸引咗	-17323
呢一點	-17324
呢條街	-17325
咁大條	-17326
咪好多	-17327
唔使坐	-17328
唔系我	-17329
商學院	-17330
啲重點	-17331
喺巴西	-17332
喺成個	-17333
喺當時	-17334
喺近住	-17335
嗰時去	-17336
嘅中間	-17337
嘅事件	-17338
嘅人嘅	-17339
嘅人數	-17340
嘅原理	-17341
嘅比喻	-17342
嘅物理	-17343
嘅空間	-17344
嘅第廿	-17345
因為要	-17346
城中村	-17347
基督敎	-17348
大埔滘	-17349
太古城	-17350
失業率	-17351
如果照	-17352
就會有	-17353
山東省	-17354
已經被	-17355
幅度細	-17356
年奧運	-17357
愛丁堡	-17358
成員有	-17359
成正比	-17360
我哋去	-17361
我好啲	-17362
我果日	-17363
新民黨	-17364
時段播	-17365
最早喺	-17366
有一百	-17367
有時睇	-17368
波斯灣	-17369
混凝土	-17370
然後再	-17371
界限街	-17372
發現有	-17373
着泳褲	-17374
社民黨	-17375
秦皇島	-17376
等到頸	-17377
結咗婚	-17378
綠色嘅	-17379
繼續做	-17380
英皇道	-17381
親都係	-17382
買果啲	-17383
追住佢	-17384
通知書	-17385
運輸局	-17386
都好少	-17387
醫院喺	-17388
里斯本	-17389
雖然喺	-17390
零聲母	-17391
電氣化	-17392
----	-17393
1915	-17394
▁應該係	-17395
▁未定啊	-17396
代表作有	-17397
估計全球	-17398
係黃曆第	-17399
保險公司	-17400
全程收費	-17401
功能組別	-17402
協商會議	-17403
即係可能	-17404
嗰陣時嘅	-17405
嘅意思係	-17406
嘅第二個	-17407
地區入面	-17408
好重要嘅	-17409
屬廣州市	-17410
已經唔再	-17411
巴薩隆拿	-17412
希望可以	-17413
年嘅排序	-17414
形成一個	-17415
成員包括	-17416
我上次去	-17417
打職業賽	-17418
新聞主播	-17419
有啲噉嘅	-17420
有好多個	-17421
球隊之一	-17422
百貨公司	-17423
自然現象	-17424
近住邊度	-17425
通常用嚟	-17426
香港警察	-17427
▁"》。。	-17428
低地台巴士	-17429
卡馬達馬尼	-17430
同中國大陸	-17431
唔使咁多人	-17432
好多時都會	-17433
年係黃曆第	-17434
秋田藍閃電	-17435
而開始出名	-17436
一級歷史建築	-17437
年嘅排序之一	-17438
晏晝繁忙時間	-17439
哉係日本足球員	-17440
子係日本足球員	-17441
所以交通事務局	-17442
讚岐卡馬達馬尼	-17443
六十干支入面嘅第	-17444
交通事務局局長汪雲	-17445
係木星嘅其中一粒衞星	-17446
%)	-17447
0,	-17448
:_	-17449
▁ü	-17450
▁咬	-17451
▁坂	-17452
▁屈	-17453
▁賓	-17454
▁邵	-17455
▁領	-17456
▁鹹	-17457
丈夫	-17458
中軸	-17459
互通	-17460
亞當	-17461
交代	-17462
人群	-17463
任教	-17464
佛朗	-17465
使命	-17466
依法	-17467
係金	-17468
信念	-17469
光譜	-17470
凝固	-17471
出賽	-17472
列治	-17473
到大	-17474
劇中	-17475
十零	-17476
去完	-17477
合夥	-17478
同同	-17479
同吳	-17480
吾爾	-17481
啲喎	-17482
單止	-17483
嘉莉	-17484
國明	-17485
域治	-17486
外籍	-17487
大半	-17488
大敗	-17489
威特	-17490
完結	-17491
將喺	-17492
對數	-17493
山人	-17494
山窿	-17495
市道	-17496
幽靈	-17497
幾萬	-17498
底褲	-17499
張相	-17500
後再	-17501
徙置	-17502
必經	-17503
急速	-17504
悶啫	-17505
或多	-17506
拆卸	-17507
捉魚	-17508
搵人	-17509
放大	-17510
放響	-17511
政客	-17512
教室	-17513
教材	-17514
明渠	-17515
智雯	-17516
更大	-17517
有講	-17518
果晚	-17519
果果	-17520
標本	-17521
機喇	-17522
歐聯	-17523
正字	-17524
歸融	-17525
母字	-17526
水深	-17527
汕尾	-17528
汶澤	-17529
波嘅	-17530
海倫	-17531
海啊	-17532
淮河	-17533
清晨	-17534
溶點	-17535
為名	-17536
營造	-17537
父子	-17538
物價	-17539
獲取	-17540
王晶	-17541
王薄	-17542
監視	-17543
禮賓	-17544
稅務	-17545
約定	-17546
紋身	-17547
素數	-17548
索尼	-17549
羅漢	-17550
艱難	-17551
菩提	-17552
菲臘	-17553
薩里	-17554
蘇拉	-17555
蘇里	-17556
西裝	-17557
要同	-17558
觀鯨	-17559
誕響	-17560
賠償	-17561
賣到	-17562
走難	-17563
轉動	-17564
轟動	-17565
連臣	-17566
過到	-17567
遠觀	-17568
酮酸	-17569
長遠	-17570
防空	-17571
雄性	-17572
離地	-17573
頂住	-17574
顯得	-17575
首詩	-17576
馬灣	-17577
高地	-17578
4.5	-17579
▁下晝	-17580
▁嗰邊	-17581
▁山頂	-17582
▁樂隊	-17583
▁部份	-17584
▁食左	-17585
《""	-17586
中途站	-17587
人口嘅	-17588
人民黨	-17589
但今次	-17590
但係就	-17591
係全國	-17592
係粵語	-17593
俾玩家	-17594
入唔到	-17595
公安局	-17596
劉慧卿	-17597
加速器	-17598
十一人	-17599
又撞啱	-17600
又有叫	-17601
取決於	-17602
可以醫	-17603
和合石	-17604
咪重好	-17605
啊嗰啲	-17606
啲機票	-17607
啲烏蠅	-17608
喺越南	-17609
嗰度玩	-17610
嗰邊嘅	-17611
嘅主角	-17612
嘅主題	-17613
嘅程式	-17614
嘅距離	-17615
噉變咗	-17616
夜總會	-17617
大滿貫	-17618
太極拳	-17619
好抵玩	-17620
就唔唔	-17621
屬於細	-17622
巴比倫	-17623
年為止	-17624
年退役	-17625
幾耐啊	-17626
強大嘅	-17627
復活節	-17628
懲教署	-17629
我以為	-17630
抵好多	-17631
排咁耐	-17632
攝影師	-17633
文翠珊	-17634
新蒲崗	-17635
時不時	-17636
更大嘅	-17637
有一羣	-17638
有啲團	-17639
東面嘅	-17640
機場嘅	-17641
機票啊	-17642
正確嘅	-17643
海岸線	-17644
澳大利	-17645
澳門嘅	-17646
無條件	-17647
留低嘅	-17648
當中以	-17649
當年嘅	-17650
睇珊瑚	-17651
第三位	-17652
第五屆	-17653
第十六	-17654
等方面	-17655
經營權	-17656
經紀人	-17657
總之係	-17658
而且重	-17659
而香港	-17660
脂肪酸	-17661
花崗石	-17662
萬四蚊	-17663
蓮花山	-17664
袁世凱	-17665
西北角	-17666
話澳洲	-17667
車輛段	-17668
軍政府	-17669
返來都	-17670
通用嘅	-17671
過咗身	-17672
都喺嗮	-17673
都喺度	-17674
都成半	-17675
重工業	-17676
鐘落潭	-17677
集合論	-17678
黃泥涌	-17679
龐大嘅	-17680
,;),	-17681
12.8	-17682
1300	-17683
▁但係你	-17684
▁呢本書	-17685
▁哦系啊	-17686
▁星期六	-17687
▁節目由	-17688
▁而呢啲	-17689
你喺澳洲	-17690
係唔係都	-17691
係香港人	-17692
入面一個	-17693
分開兩次	-17694
叫做唔知	-17695
可以即係	-17696
嘅大部分	-17697
國際組織	-17698
圍住佢來	-17699
天氣又好	-17700
就係噉嚟	-17701
市民反感	-17702
希望之黨	-17703
廣州市第	-17704
德輔道中	-17705
所以叫做	-17706
朋友講話	-17707
澳洲嗰邊	-17708
監躉困境	-17709
真係好大	-17710
睇下裏面	-17711
睇啱邊個	-17712
總人口嘅	-17713
自己去呢	-17714
號總決賽	-17715
被人批評	-17716
調整幅度	-17717
都好悶啫	-17718
面積大約	-17719
▁一般認為	-17720
▁同大多數	-17721
▁我未見過	-17722
一直向東北	-17723
你老公有冇	-17724
嗰度有乜嘢	-17725
成條馬路係	-17726
我同我老公	-17727
澳洲紐西蘭	-17728
皇后大道東	-17729
第一次推出	-17730
等到頸都長	-17731
通常都係貴	-17732
▁唔知係唔係	-17733
係屬於房屋局	-17734
其實都係一樣	-17735
▁舉個例子說明	-17736
輝係日本足球員	-17737
中華人民共和國嘅	-17738
係臺灣鐵路管理局	-17739
唔知邊個唔知邊個	-17740
,。	-17741
-。	-17742
▁交	-17743
▁仔	-17744
▁侯	-17745
▁勒	-17746
▁套	-17747
▁朝	-17748
▁核	-17749
▁煲	-17750
▁請	-17751
▁進	-17752
一兩	-17753
三維	-17754
三點	-17755
上岸	-17756
世襲	-17757
之故	-17758
乜都	-17759
伯爵	-17760
佢用	-17761
來嚹	-17762
借俾	-17763
偶然	-17764
傳真	-17765
價呀	-17766
光滑	-17767
公寓	-17768
冰冰	-17769
刊物	-17770
前地	-17771
創校	-17772
加幅	-17773
北斗	-17774
北約	-17775
區間	-17776
去㗎	-17777
又照	-17778
口嘅	-17779
向佢	-17780
哩我	-17781
唐文	-17782
唔及	-17783
唔清	-17784
唧噉	-17785
商家	-17786
問過	-17787
啲乜	-17788
喪屍	-17789
嘅阿	-17790
嘢買	-17791
嚟用	-17792
囖係	-17793
四成	-17794
圍站	-17795
團𡃉	-17796
增值	-17797
夏令	-17798
失望	-17799
女聲	-17800
孤兒	-17801
安道	-17802
官吏	-17803
屆時	-17804
左我	-17805
平治	-17806
廬山	-17807
延安	-17808
待遇	-17809
後喺	-17810
復辟	-17811
德斯	-17812
德羅	-17813
心室	-17814
怪啫	-17815
想做	-17816
愛心	-17817
慣例	-17818
慰安	-17819
成蟲	-17820
手頭	-17821
排骨	-17822
搞埋	-17823
搞好	-17824
播嘅	-17825
支柱	-17826
收三	-17827
收錢	-17828
救火	-17829
新市	-17830
明末	-17831
時分	-17832
時時	-17833
會食	-17834
月頭	-17835
有抵	-17836
有車	-17837
木魚	-17838
梅州	-17839
棱埋	-17840
橋樑	-17841
歷來	-17842
歷程	-17843
每粒	-17844
泡沫	-17845
海山	-17846
渡船	-17847
温度	-17848
無數	-17849
爪魚	-17850
特許	-17851
狩獵	-17852
生菜	-17853
的人	-17854
監控	-17855
睇喎	-17856
知啊	-17857
知喎	-17858
祐漢	-17859
神靈	-17860
積遜	-17861
籌組	-17862
紅旗	-17863
紙幣	-17864
維拉	-17865
而又	-17866
船洲	-17867
英航	-17868
莫拉	-17869
落入	-17870
螺絲	-17871
要素	-17872
覺喎	-17873
觀團	-17874
解讀	-17875
記述	-17876
證件	-17877
變態	-17878
豬仔	-17879
路士	-17880
身亡	-17881
辭去	-17882
逮捕	-17883
逳手	-17884
那英	-17885
都將	-17886
門戶	-17887
阻力	-17888
雷達	-17889
電阻	-17890
食囖	-17891
食過	-17892
食野	-17893
食𡃉	-17894
駐軍	-17895
高登	-17896
麗葉	-17897
。	-17898
𠻹喎	-17899
𠻺係	-17900
𡃉咋	-17901
𡃉咩	-17902
𡃉嚹	-17903
𡃉都	-17904
1,0	-17905
10,	-17906
▁中學	-17907
▁係吔	-17908
▁係呀	-17909
▁係喲	-17910
▁係由	-17911
▁公斤	-17912
▁冇咩	-17913
▁同日	-17914
▁呢季	-17915
▁呢日	-17916
▁咬唔	-17917
▁商場	-17918
▁噉呀	-17919
▁尤其	-17920
▁康熙	-17921
▁我想	-17922
▁歐陽	-17923
▁玩就	-17924
▁算喇	-17925
▁系咁	-17926
▁都曬	-17927
》:「	-17928
中山市	-17929
之前叫	-17930
二十年	-17931
人哋養	-17932
代名詞	-17933
令到個	-17934
任命為	-17935
但我知	-17936
但而家	-17937
你係嘞	-17938
你哋講	-17939
你梗係	-17940
你睇喎	-17941
佢個嗰	-17942
佢哩個	-17943
佢夏天	-17944
係噉威	-17945
係而家	-17946
俾餅帶	-17947
借餅帶	-17948
假期囖	-17949
做哩行	-17950
其中以	-17951
出來呢	-17952
加就加	-17953
北極熊	-17954
半價啊	-17955
危險𡃉	-17956
即係紐	-17957
去過喇	-17958
去邊嚹	-17959
去邊囖	-17960
去食啊	-17961
參加囖	-17962
又唔知	-17963
又照譯	-17964
叫做出	-17965
吉喼去	-17966
同人類	-17967
同各種	-17968
同回應	-17969
同埋大	-17970
咪去囖	-17971
咬人𡃉	-17972
唔係啊	-17973
唔係喇	-17974
唔係着	-17975
唔係𡃉	-17976
唔實行	-17977
唔符合	-17978
唧究竟	-17979
唱作人	-17980
啱呢就	-17981
啲嘢睇	-17982
喇噉樣	-17983
單位係	-17984
單位制	-17985
嗮所有	-17986
嗰個舊	-17987
嗰啲呢	-17988
嗰啲囖	-17989
嗰度呢	-17990
嗰度有	-17991
嗰條尾	-17992
嘅一半	-17993
嘅品種	-17994
嘅嘢囖	-17995
嘅資源	-17996
嘅選舉	-17997
嘢玩嚹	-17998
噉係啊	-17999
噉樣喎	-18000
噉樣就	-18001
噉樣𡃉	-18002
圍住你	-18003
圖片呢	-18004
團定係	-18005
坐晒咯	-18006
報紙噉	-18007
夏天去	-18008
好多嘅	-18009
好多囖	-18010
好靚喎	-18011
就係囖	-18012
尾都發	-18013
巴拿馬	-18014
帕斯啊	-18015
帕斯啫	-18016
平𡃉喎	-18017
年解散	-18018
幾多啊	-18019
幾時度	-18020
幾次唧	-18021
幾靚喎	-18022
廣州塔	-18023
得去嗱	-18024
得比較	-18025
徹斯特	-18026
成功噉	-18027
成日用	-18028
我帶啲	-18029
抵啲喎	-18030
排第一	-18031
摩星嶺	-18032
最好囖	-18033
最想去	-18034
最重要	-18035
會因為	-18036
會計師	-18037
有自己	-18038
有部份	-18039
有隻船	-18040
未放完	-18041
果度咯	-18042
梗係喇	-18043
條𡃉喎	-18044
機票要	-18045
死人喇	-18046
比加斯	-18047
淨係未	-18048
澳洲你	-18049
澳洲咋	-18050
無人機	-18051
玩咪啱	-18052
由於佢	-18053
睇煙花	-18054
睇鯨魚	-18055
睇𡃉嚹	-18056
瞓覺呀	-18057
瞓覺囖	-18058
福島聯	-18059
禮拜一	-18060
禮拜嘅	-18061
粒鐘啊	-18062
緊要呀	-18063
總公司	-18064
而家旺	-18065
腳尖企	-18066
舊時嘅	-18067
蘭開夏	-18068
被列入	-18069
被淘汰	-18070
裡面嘅	-18071
製造嘅	-18072
訊息嘅	-18073
話烏蠅	-18074
變咗你	-18075
買嘢啊	-18076
起緊嘅	-18077
返嚟嘅	-18078
返鄉下	-18079
迫人囖	-18080
遠觀𡃉	-18081
避寒呀	-18082
都受到	-18083
都會喺	-18084
鄉議局	-18085
重會有	-18086
錄音室	-18087
鍾意喎	-18088
降雨量	-18089
陳述式	-18090
首府係	-18091
黑晒噉	-18092
點去喎	-18093
𡃉嗰邊	-18094
▁七八月	-18095
▁九月中	-18096
▁事實上	-18097
▁佢密度	-18098
▁係囖咪	-18099
▁係裏邊	-18100
▁入面有	-18101
▁半價呀	-18102
▁即係你	-18103
▁去𡃉喎	-18104
▁咦你重	-18105
▁咪帶定	-18106
▁哦即係	-18107
▁哩個去	-18108
▁唔係喎	-18109
▁唔知喲	-18110
▁喂遲啲	-18111
▁喺英文	-18112
▁噉你重	-18113
▁噉係啊	-18114
▁噉唔同	-18115
▁噉我諗	-18116
▁噉𠻺係	-18117
▁有海豚	-18118
▁淡季去	-18119
▁玩嗰啲	-18120
▁睇風景	-18121
一個人嘅	-18122
一個場喎	-18123
一國兩制	-18124
一齊𡃉喇	-18125
不過新西	-18126
不過要係	-18127
九月中都	-18128
伊斯蘭國	-18129
但係哩個	-18130
但係當年	-18131
你一日玩	-18132
你係等佢	-18133
你喺個海	-18134
你睇到囖	-18135
佢嗰啲都	-18136
係一群噉	-18137
係噉𡃉喇	-18138
係睇天然	-18139
係睇海啊	-18140
係睇鯨魚	-18141
個月份係	-18142
借餅帶俾	-18143
到時自己	-18144
十二月去	-18145
即係你都	-18146
即係嗰邊	-18147
即係嗰頭	-18148
即係天然	-18149
即係平嘅	-18150
即係睇下	-18151
即係睇佢	-18152
去過嗰邊	-18153
古典主義	-18154
可以出海	-18155
可以睇嘢	-18156
同西班牙	-18157
吖嗎屬於	-18158
呢個站亦	-18159
咁熱辣辣	-18160
咁耐機喇	-18161
咪錶收費	-18162
唔使咁凍	-18163
唔使咁迫	-18164
唔好意思	-18165
唔緊要喇	-18166
唧噉哩啲	-18167
啊嗰啲喇	-18168
啊睇哩啲	-18169
啱時間𡃉	-18170
啲觀光點	-18171
啲重點喇	-18172
喺晒裏邊	-18173
嗰啲呢就	-18174
嗰啲大成	-18175
嗰啲梗係	-18176
嗰啲要夾	-18177
嗰啲𡃉喎	-18178
嗰陣時囖	-18179
嘩啲烏蠅	-18180
噉先有得	-18181
噉又可以	-18182
噉嘅氣候	-18183
噠你老公	-18184
嚹我上次	-18185
因為佢嘅	-18186
團𡃉直頭	-18187
地方去囖	-18188
多嘢睇多	-18189
好抵玩喎	-18190
安排取消	-18191
定係唔知	-18192
定新西蘭	-18193
就係𡃉喇	-18194
就啱佢啲	-18195
就好啲囖	-18196
屬於細呀	-18197
巴士車身	-18198
帕斯咋喎	-18199
平機票啊	-18200
平過香港	-18201
年代初期	-18202
幾個喼去	-18203
想去邊吖	-18204
應該係喇	-18205
我唔使記	-18206
我好啲喎	-18207
我對鯨魚	-18208
我諗即係	-18209
政府總部	-18210
方案諮詢	-18211
旅遊點囖	-18212
時間性囖	-18213
暑假𡃉咩	-18214
有一羣𡃉	-18215
有啲叫做	-18216
有啲好快	-18217
有啲烏蠅	-18218
有啲真係	-18219
有啲觀團	-18220
有平嘢買	-18221
有抵嘢食	-18222
未去過𠻹	-18223
湖北武漢	-18224
澳洲好呢	-18225
澳門總督	-18226
烏蠅𡃉喎	-18227
無產階級	-18228
玩乜嘢啊	-18229
發展計劃	-18230
着泳褲喇	-18231
睇鯨魚呀	-18232
確診個案	-18233
紐西蘭啊	-18234
紐西蘭嚹	-18235
綜合大樓	-18236
總部設喺	-18237
職業技術	-18238
裏邊嗰啲	-18239
超級英雄	-18240
跟團可能	-18241
迪士尼呢	-18242
邊個月份	-18243
都幾貴喎	-18244
開國皇帝	-18245
風景又靚	-18246
食𡃉咋喎	-18247
餵佢食嘢	-18248
香港小姐	-18249
鯨魚吖嗎	-18250
鯨魚睇𡃉	-18251
▁不過幾日	-18252
▁不過澳洲	-18253
▁但你哋講	-18254
▁但會唔會	-18255
▁你想去邊	-18256
▁係啊嗰陣	-18257
▁係食嗰啲	-18258
▁儀象考成	-18259
▁冇得去嗱	-18260
▁即係好多	-18261
▁咁緊要呀	-18262
▁喺個海度	-18263
▁嗰度買嘢	-18264
▁噉咪食同	-18265
▁噉唔知啊	-18266
▁噉放假係	-18267
▁如果你係	-18268
▁差唔多咋	-18269
▁平機票要	-18270
▁所以走去	-18271
▁條尾都發	-18272
▁澳洲好熱	-18273
▁而家旺季	-18274
▁薯條𡃉咋	-18275
▁跟旅行社	-18276
▁通常如果	-18277
▁都好怪啫	-18278
一定包一定	-18279
七八月𡃉嚹	-18280
下次去邊嚹	-18281
乜嘢噉樣𡃉	-18282
乜嘢漢堡包	-18283
乜嘢都問佢	-18284
人哋養𡃉喎	-18285
但係如果係	-18286
但我知有哩	-18287
你又鍾意喎	-18288
你老公嗰度	-18289
你都去過喇	-18290
佢哩個你係	-18291
佢夏天吖嗎	-18292
佢好大𡃉喎	-18293
佢就係去啲	-18294
佢直程可以	-18295
係噉追住你	-18296
係要排咁耐	-18297
俾餅帶你呢	-18298
借俾你睇喎	-18299
價錢唔知啊	-18300
先去嗰陣時	-18301
冇乜點去喎	-18302
即係佢嗰個	-18303
即係佢會有	-18304
即係總之係	-18305
吉喼去𡃉喇	-18306
咁多人去呀	-18307
咁熱辣辣喎	-18308
咪去親都係	-18309
哩啲報紙噉	-18310
唔係你要去	-18311
唔係好知喎	-18312
喺近住帕斯	-18313
嗰度你梗係	-18314
嗰度好靚喎	-18315
嗰度玩咋喎	-18316
嗰陣時去呢	-18317
噉就梗係喇	-18318
噉平咪去囖	-18319
四十幾度喎	-18320
因為未見過	-18321
夏天嘅時侯	-18322
天氣又好喎	-18323
好似唔係好	-18324
好似幾靚喎	-18325
寒暑假期間	-18326
就唔一定包	-18327
就最好𡃉喇	-18328
廿五週年喎	-18329
我想睇下喎	-18330
我老公次次	-18331
排一笪地方	-18332
最低嘅歌手	-18333
最好去食啊	-18334
有乜嘢睇啊	-18335
有隻船出海	-18336
朋友講話去	-18337
棱埋紐西蘭	-18338
淡季先有得	-18339
澳洲嗰邊囖	-18340
玩咗咁多日	-18341
玩啊都成半	-18342
直程可以喺	-18343
直程可以租	-18344
直頭喺個海	-18345
睇香港嗰啲	-18346
知唔知大概	-18347
職業足球員	-18348
自動影相機	-18349
裏邊冇乜嘢	-18350
要睇佢個嗰	-18351
要等我老公	-18352
觀鯨團定係	-18353
起碼半價啊	-18354
追佢追住佢	-18355
遠觀𡃉吖嗎	-18356
都冇乜興趣	-18357
都未去過咩	-18358
酒店住𠻹喎	-18359
香港十二月	-18360
香港法例第	-18361
▁但係我唔知	-18362
▁但係睇好似	-18363
▁你冇去行咩	-18364
▁你都唔游水	-18365
▁係裏邊食囖	-18366
▁去過幾次唧	-18367
▁咬唔咬人𡃉	-18368
▁喺中國大陸	-18369
▁嗰邊都有人	-18370
▁噉咪瞓覺囖	-18371
▁因為我老公	-18372
▁應該係夏天	-18373
▁我又唔覺喎	-18374
▁有冇危險𡃉	-18375
▁睇風景囖係	-18376
▁都應該係喇	-18377
▁重去過邊度	-18378
一次過坐晒咯	-18379
上次我淨係去	-18380
不過我都想去	-18381
不過真係好大	-18382
不過要係淡季	-18383
九廣鐵路公司	-18384
但係都幾貴喎	-18385
你老公成日都	-18386
你要睇啱邊個	-18387
你返屋企睇喎	-18388
佢嗰隻唔係𡃉	-18389
佢話好大隻𡃉	-18390
係唔係抵好多	-18391
個導遊都冇帶	-18392
先至有得睇𡃉	-18393
冇去紐西蘭嚹	-18394
到好犀利𡃉喎	-18395
十二月嗰陣時	-18396
即係嗰邊呢會	-18397
去先至價錢啊	-18398
去唔去旅行啊	-18399
又撞啱有啲團	-18400
又照譯紐西蘭	-18401
同埋有啲乜嘢	-18402
咪睇下去邊囖	-18403
唔係着乜嘢啊	-18404
啲觀光點嗰啲	-18405
嗰個迪士尼呢	-18406
嗰啲大成點啊	-18407
嗰度好熱𡃉喎	-18408
嗰條尾都好大	-18409
噉變咗你係嘞	-18410
噠你老公個朵	-18411
四十幾度𡃉都	-18412
因為都未去過	-18413
多嘢睇多嘢玩	-18414
好似聽講啲天	-18415
好貴啊睇哩啲	-18416
如果係自己去	-18417
就有得睇𡃉嚹	-18418
帶隊嗰啲梗係	-18419
幾時度有得睇	-18420
想去睇下啲咁	-18421
我上次去都係	-18422
我以為淨係未	-18423
我可以唔使話	-18424
最高人民會議	-18425
有人叫即係紐	-18426
未試過聖誕節	-18427
淡季去都要啊	-18428
澳門巴士票價	-18429
美國啊嗰啲喇	-18430
話澳洲嗰度呢	-18431
話烏蠅係噉威	-18432
返來都黑晒噉	-18433
通常自己去呢	-18434
都要成萬四蚊	-18435
▁不過唔緊要喇	-18436
▁但係我最想去	-18437
▁但係我未見過	-18438
▁但係有啲唔使	-18439
▁但係都唔係好	-18440
▁個導遊都冇帶	-18441
▁即係你意思係	-18442
▁即係到時自己	-18443
▁又可以試下喎	-18444
▁哦你跟團可能	-18445
▁唔使分開兩次	-18446
▁唔係即係嗰頭	-18447
▁喺美國咪好多	-18448
▁好彩我未去過	-18449
▁我老公話都係	-18450
▁有海豚定係有	-18451
▁淨係睇鯨魚呀	-18452
▁真係未試過喎	-18453
▁跟旅行社去囖	-18454
▁邊度有平嘢買	-18455
但係哩個好似好	-18456
但係要就啱佢啲	-18457
佢嗰隻係睇天然	-18458
係一群噉出來呢	-18459
係睇鯨魚最好囖	-18460
個月份係幾時啊	-18461
即係佢有啲噉嘅	-18462
即係天然嘅嘢囖	-18463
去過嗰邊瞓覺呀	-18464
史係日本足球員	-18465
咁大條鯨魚吖嗎	-18466
哩個去帕斯咋喎	-18467
唔使咁多人排長	-18468
唔使坐咁耐機喇	-18469
唔係人哋養𡃉喎	-18470
啱呢就有一羣𡃉	-18471
嗰啲係好大隻𡃉	-18472
嗰啲嗰啲叫做出	-18473
嗰啲嗰啲圖片呢	-18474
嗰度有乜嘢平嘅	-18475
嘩啲烏蠅圍住你	-18476
噉先有得參加囖	-18477
噉又可以試下喎	-18478
城市係有啲烏蠅	-18479
夏天去嗰個時候	-18480
好多人嚹我上次	-18481
好鬼多烏蠅𡃉喎	-18482
如果你十二月去	-18483
定新西蘭唧究竟	-18484
屬於單程車票第	-18485
帶你去啲重點喇	-18486
平過香港好多囖	-18487
志係日本足球員	-18488
我又唔係好知喎	-18489
我聽朋友講話去	-18490
所以有時間性囖	-18491
效力過大阪櫻花	-18492
效力過橫濱水手	-18493
有啲乜嘢酒店啊	-18494
有啲叫做新西蘭	-18495
有時睇即係睇佢	-18496
未去過紐西蘭啊	-18497
未放完暑假𡃉咩	-18498
澳洲紐西蘭嗰邊	-18499
睇下到時去先至	-18500
睇煙花嗰啲呢就	-18501
睇珊瑚嗰啲嘢囖	-18502
等到頸都長埋啊	-18503
紐西蘭係唔係都	-18504
紐西蘭未去過𠻹	-18505
諗住要就係𡃉喇	-18506
變咗你可以睇嘢	-18507
通常都係貴𡃉喎	-18508
都係細吖嗎屬於	-18509
▁七八月嗰陣時囖	-18510
▁但你哋講嗰啲係	-18511
▁但係你佢嗰啲都	-18512
▁你想去邊喇噉樣	-18513
▁咁緊要呀十二月	-18514
▁咦你重想去邊吖	-18515
▁咪帶定幾個喼去	-18516
▁哦即係餵佢食嘢	-18517
▁唔知喺近住帕斯	-18518
▁嗰度買嘢抵啲喎	-18519
▁嗰陣時聽人講呢	-18520
▁噉你重去過邊度	-18521
▁噉咪食同玩咪啱	-18522
▁噉我諗我諗即係	-18523
▁條尾都發死人喇	-18524
▁淡季去你幾時啊	-18525
一定包一定睇得到	-18526
七八月嗰陣時去呢	-18527
不過真係好大裏邊	-18528
但我知有哩啲嘢睇	-18529
你一日玩一個場喎	-18530
即係可能嗰個時期	-18531
即係睇下你幾時去	-18532
哩啲報紙噉影出來	-18533
嗰啲要夾啱時間𡃉	-18534
夏天嘅時侯聖誕節	-18535
好似唔係好適應啊	-18536
好似幾靚喎啲風景	-18537
就可以揀地方去囖	-18538
年上畫嘅美國電影	-18539
年香港立法會選舉	-18540
我唔記得近住邊度	-18541
我帶啲吉喼去𡃉喇	-18542
效力過名古屋八鯨	-18543
淡季先有得平𡃉喎	-18544
淨係去嗰度玩咋喎	-18545
澳洲你都未去過咩	-18546
玩啊都成半粒鐘啊	-18547
追佢追住佢噉樣喎	-18548
香港十二月嗰時去	-18549
▁不過幾日都好悶啫	-18550
▁不過澳洲好似冇乜	-18551
▁但係睇好似如果照	-18552
▁係啊嗰陣聽人講呢	-18553
▁係囖咪澳洲嗰邊囖	-18554
▁即係不過要係淡季	-18555
▁唔知係唔係帕斯啊	-18556
▁噉唔同睇香港嗰啲	-18557
▁噉放假最好去食啊	-18558
▁因為我老公做哩行	-18559
▁就係想去睇下啲咁	-18560
▁所以走去澳洲好呢	-18561
▁都曬到好犀利𡃉喎	-18562
▁雖然車站冇休息室	-18563
一定唔會七八月𡃉嚹	-18564
上次我淨係去澳洲咋	-18565
不過我都想去紐西蘭	-18566
九月中都咁多人去呀	-18567
但係如果係你喺澳洲	-18568
你喺個海嗰度你梗係	-18569
你老公成日都去美國	-18570
你老公有冇平機票啊	-18571
你要睇啱邊個時間去	-18572
佢就係去啲旅遊點囖	-18573
係六十四卦之中嘅第	-18574
係唔係抵好多𡃉嗰邊	-18575
個導遊都冇帶我地去	-18576
即係佢嗰個叫做唔知	-18577
同埋有啲乜嘢嘢玩嚹	-18578
嗰條尾都好大條𡃉喎	-18579
如果係自己去就係囖	-18580
就唔一定包你睇到囖	-18581
我對鯨魚都冇乜興趣	-18582
有啲真係起碼半價啊	-18583
有啲遊戲係要排咁耐	-18584
棱埋紐西蘭一齊𡃉喇	-18585
民主主義人民共和國	-18586
淨係去啲觀光點嗰啲	-18587
直程可以喺裏邊嗰啲	-18588
直頭喺個海你係等佢	-18589
裏邊冇乜嘢食𡃉咋喎	-18590
要睇佢個嗰嗰段時間	-18591
香港冬天佢夏天吖嗎	-18592
香港冬天先去嗰陣時	-18593
▁但係我唔知邊個月份	-18594
▁但係都唔係好迫人囖	-18595
▁係食嗰啲乜嘢漢堡包	-18596
▁個導遊都冇帶我哋去	-18597
▁喂遲啲去唔去旅行啊	-18598
▁好彩我未去過帕斯啫	-18599
▁應該係夏天噉嘅氣候	-18600
但係要就啱佢啲假期囖	-18601
佢直程可以俾餅帶你呢	-18602
借餅帶俾你返屋企睇喎	-18603
即係嗰邊呢會好熱𡃉喎	-18604
去先至價錢啊嗰啲嘢囖	-18605
幾時度有得睇唧噉哩啲	-18606
快速軌道交通線網規劃	-18607
我唔知個月份係幾時啊	-18608
搭飛機去過嗰邊瞓覺呀	-18609
海洋公園嗰啲屬於細呀	-18610
睇下佢嗰度有乜嘢平嘅	-18611
紐西蘭定新西蘭唧究竟	-18612
觀鯨團定係乜嘢噉樣𡃉	-18613
通常自己去呢就好啲囖	-18614
▁但會唔會好貴啊睇哩啲	-18615
▁即係到時自己嗰啲嚹喎	-18616
▁差唔多咋我上次去都係	-18617
▁有海豚定係有鯨魚睇𡃉	-18618
佢嗰隻係睇天然嗰啲𡃉喎	-18619
即係佢有啲噉嘅團𡃉直頭	-18620
唔係你要去就有得睇𡃉嚹	-18621
城市係有啲烏蠅好大隻𡃉	-18622
我老公次次返來都黑晒噉	-18623
未試過聖誕節咁熱辣辣喎	-18624
睇下裏面有啲乜嘢酒店啊	-18625
睇煙花嗰啲呢就唔使咁迫	-18626
都未必一定包一定睇得到	-18627
▁哦即係餵佢食嘢嗰啲嚹喎	-18628
▁唔知喺近住帕斯定係唔知	-18629
▁如果你係夏天去嗰個時候	-18630
▁通常如果諗住要就係𡃉喇	-18631
嘩啲烏蠅圍住你係噉追住你	-18632
因為未見過咁大條鯨魚吖嗎	-18633
圍住佢來追佢追住佢噉樣喎	-18634
▁即係不過要係淡季嘅時候呢	-18635
▁即係你意思係十二月嗰陣時	-18636
▁嗰邊都有人未放完暑假𡃉咩	-18637
▁噉我諗我諗即係遠觀𡃉吖嗎	-18638
▁平機票要淡季先有得平𡃉喎	-18639
你喺個海嗰度你梗係着泳褲喇	-18640
即係總之係唔知邊個唔知邊個	-18641
排一笪地方玩啊都成半粒鐘啊	-18642
▁但係我最想去澳洲紐西蘭嗰邊	-18643
▁喺美國咪好多嗰啲嗰啲叫做出	-18644
咪去親都係棱埋紐西蘭一齊𡃉喇	-18645
有時睇即係睇佢嗰啲嗰啲圖片呢	-18646
直程可以喺裏邊嗰啲酒店住𠻹喎	-18647
▁噉唔同睇香港嗰啲海洋公園嗰啲	-18648
即係可能嗰個時期係一群噉出來呢	-18649
我同我老公通常自己去呢就好啲囖	-18650
我唔記得近住邊度嗰啲係好大隻𡃉	-18651
▁哦你跟團可能佢就係去啲旅遊點囖	-18652
要睇佢個嗰嗰段時間啱呢就有一羣𡃉	-18653
-「	-18654
:『	-18655
▁>	-18656
▁兆	-18657
▁啟	-18658
▁岑	-18659
▁根	-18660
▁活	-18661
▁澤	-18662
▁程	-18663
▁賈	-18664
▁轉	-18665
一天	-18666
三成	-18667
上再	-18668
之心	-18669
交所	-18670
人所	-18671
人種	-18672
介面	-18673
介音	-18674
伽利	-18675
供電	-18676
係高	-18677
做咯	-18678
做餡	-18679
停機	-18680
先端	-18681
再做	-18682
冷凍	-18683
包尾	-18684
北洋	-18685
協進	-18686
南至	-18687
厄瓜	-18688
原版	-18689
去整	-18690
友愛	-18691
取材	-18692
叫咩	-18693
史學	-18694
合口	-18695
同反	-18696
名將	-18697
名牌	-18698
咗條	-18699
品嘅	-18700
唔高	-18701
啊唔	-18702
啲有	-18703
嚟寫	-18704
嚟過	-18705
四等	-18706
國教	-18707
圖靈	-18708
奧爾	-18709
奶粉	-18710
好處	-18711
姐姐	-18712
威曼	-18713
婆婆	-18714
射手	-18715
就就	-18716
局先	-18717
左一	-18718
巴嫩	-18719
幾高	-18720
戈爾	-18721
戰車	-18722
手臂	-18723
招聘	-18724
搵佢	-18725
擁護	-18726
擬音	-18727
擺脫	-18728
改嘅	-18729
斜坡	-18730
新版	-18731
旨在	-18732
景色	-18733
最短	-18734
東便	-18735
極度	-18736
樂迷	-18737
每人	-18738
民謠	-18739
氣流	-18740
法同	-18741
洋洲	-18742
流溪	-18743
海同	-18744
淑怡	-18745
深嘅	-18746
清理	-18747
溫州	-18748
漁業	-18749
漢陽	-18750
潔儀	-18751
澳葡	-18752
火鍋	-18753
無罪	-18754
爾蒙	-18755
牲畜	-18756
狼群	-18757
珍妮	-18758
理數	-18759
甘油	-18760
生死	-18761
用做	-18762
界面	-18763
癡線	-18764
盟軍	-18765
相等	-18766
眼睛	-18767
祈求	-18768
精品	-18769
紀年	-18770
細仔	-18771
綁架	-18772
置地	-18773
老匯	-18774
考核	-18775
聽話	-18776
肉類	-18777
花蓮	-18778
葉柄	-18779
薔薇	-18780
褐色	-18781
西餐	-18782
話去	-18783
賭博	-18784
赫蒂	-18785
走出	-18786
路名	-18787
車程	-18788
輕易	-18789
近親	-18790
逐個	-18791
連儂	-18792
都屬	-18793
都響	-18794
鎖轆	-18795
長毛	-18796
防範	-18797
阿姆	-18798
阿明	-18799
阿杰	-18800
隻牌	-18801
電負	-18802
韓紅	-18803
頂部	-18804
風光	-18805
首腦	-18806
黃石	-18807
龍船	-18808
0.0	-18809
126	-18810
172	-18811
]],	-18812
]。。	-18813
▁-,	-18814
▁》(	-18815
▁亨利	-18816
▁伊利	-18817
▁函數	-18818
▁初頭	-18819
▁北宋	-18820
▁呢份	-18821
▁四月	-18822
▁基於	-18823
▁專輯	-18824
▁立方	-18825
、。。	-18826
佢就話	-18827
係比較	-18828
做乜野	-18829
做香港	-18830
元素嘅	-18831
先開始	-18832
入面做	-18833
其中喺	-18834
冇區分	-18835
劇作家	-18836
另一條	-18837
同世界	-18838
同德國	-18839
同生活	-18840
同返工	-18841
咁犀利	-18842
咗超過	-18843
哺乳類	-18844
唔包括	-18845
唔存在	-18846
啊唔系	-18847
嘅作者	-18848
嘅物體	-18849
嘅記錄	-18850
境內嘅	-18851
大代表	-18852
大學同	-18853
大概喺	-18854
大遊行	-18855
委員長	-18856
對自己	-18857
幫佢哋	-18858
年入選	-18859
廁所同	-18860
式學習	-18861
我地啲	-18862
打鼓嶺	-18863
斯洛文	-18864
新聞部	-18865
普通線	-18866
更多嘅	-18867
最近嘅	-18868
會議室	-18869
有四個	-18870
未成年	-18871
林村河	-18872
氏宗祠	-18873
民思潮	-18874
洗衫舖	-18875
消防處	-18876
瑪利亞	-18877
畀英國	-18878
站附近	-18879
第三期	-18880
經歷咗	-18881
縣政府	-18882
而家你	-18883
脫維亞	-18884
舞蹈室	-18885
設計者	-18886
陳奕迅	-18887
需要嘅	-18888
1909	-18889
▁其中喺	-18890
▁土耳其	-18891
世紀中葉	-18892
主教座堂	-18893
主要都係	-18894
係因為佢	-18895
光合作用	-18896
克里米亞	-18897
公佈巴士	-18898
唔可以用	-18899
太平紳士	-18900
如此類推	-18901
得唔得啊	-18902
最終報告	-18903
林衍新話	-18904
梳士巴利	-18905
汽車公司	-18906
港英政府	-18907
澳大利亞	-18908
短篇小說	-18909
研究顯示	-18910
窒下窒下	-18911
站係港鐵	-18912
細個嗰陣	-18913
美式足球	-18914
設有一個	-18915
遊戲節目	-18916
電視台嘅	-18917
電訊盈科	-18918
音樂節目	-18919
音樂組合	-18920
(2007	-18921
▁1921	-18922
▁1926	-18923
▁1933	-18924
▁1939	-18925
係六蚊葡幣	-18926
係羅馬帝國	-18927
喺香港九龍	-18928
平方公里大	-18929
有兩個校區	-18930
沙比高恩斯	-18931
逢星期一至	-18932
都有唔同嘅	-18933
金曲獎最佳	-18934
22:00-	-18935
人工神經細胞	-18936
歐洲聯賽冠軍	-18937
而家係無綫電視	-18938
係廣州地鐵嘅車站	-18939
澳門巴士票價調整	-18940
中華人民共和國成立	-18941
全程收費係六蚊葡幣	-18942
朝早同晏晝繁忙時間	-18943
20:00-20:30	-18944
▁γ	-18945
▁來	-18946
▁夠	-18947
▁蓋	-18948
▁計	-18949
三樓	-18950
上線	-18951
上載	-18952
之作	-18953
之變	-18954
亦曾	-18955
伯虎	-18956
值嘅	-18957
偏西	-18958
僑民	-18959
兩黨	-18960
公乸	-18961
冇錯	-18962
到有	-18963
加啲	-18964
化咗	-18965
可愛	-18966
各方	-18967
同內	-18968
名額	-18969
咁又	-18970
嚴謹	-18971
回報	-18972
圖章	-18973
坐喺	-18974
型式	-18975
墓地	-18976
外貿	-18977
大河	-18978
大話	-18979
天佑	-18980
女孩	-18981
好返	-18982
始創	-18983
字幕	-18984
宇文	-18985
宏觀	-18986
宜合	-18987
對上	-18988
尼克	-18989
巔峰	-18990
巴特	-18991
市集	-18992
師父	-18993
年來	-18994
弓話	-18995
影星	-18996
後就	-18997
得勝	-18998
心肌	-18999
抽籤	-19000
拉戈	-19001
拉法	-19002
拉登	-19003
拜神	-19004
搞成	-19005
搬遷	-19006
撤回	-19007
攞走	-19008
放置	-19009
新站	-19010
方濟	-19011
旅館	-19012
景路	-19013
暹羅	-19014
會談	-19015
有九	-19016
有水	-19017
李德	-19018
核子	-19019
條頸	-19020
楓樹	-19021
榴槤	-19022
死啦	-19023
每當	-19024
每隔	-19025
毛記	-19026
氣層	-19027
江北	-19028
汶萊	-19029
洪濤	-19030
潤發	-19031
激光	-19032
濃煙	-19033
濕度	-19034
熱血	-19035
爲止	-19036
特例	-19037
王莽	-19038
田信	-19039
發聲	-19040
盡力	-19041
盡頭	-19042
短短	-19043
石壁	-19044
石碑	-19045
硬幣	-19046
福道	-19047
禮頓	-19048
穿山	-19049
第個	-19050
粉絲	-19051
組件	-19052
編制	-19053
肢體	-19054
花色	-19055
蓮娜	-19056
血型	-19057
行列	-19058
西式	-19059
要靠	-19060
豁免	-19061
豆沙	-19062
越大	-19063
迴響	-19064
這個	-19065
進駐	-19066
逼車	-19067
遠征	-19068
重光	-19069
鋼筋	-19070
錄得	-19071
鑄造	-19072
開場	-19073
開左	-19074
開普	-19075
阿發	-19076
陳國	-19077
陽朔	-19078
面世	-19079
面體	-19080
飛馬	-19081
餅乾	-19082
養院	-19083
黨籍	-19084
102	-19085
128	-19086
2.8	-19087
_15	-19088
▁3.	-19089
▁一日	-19090
▁三個	-19091
▁上次	-19092
▁你冇	-19093
▁你去	-19094
▁佢以	-19095
▁只有	-19096
▁咁就	-19097
▁唐朝	-19098
▁大會	-19099
▁學生	-19100
▁山田	-19101
▁成日	-19102
▁政治	-19103
▁數碼	-19104
▁日日	-19105
▁灣仔	-19106
▁當然	-19107
▁雖則	-19108
一般會	-19109
下卦係	-19110
不過補	-19111
五十六	-19112
亞馬遜	-19113
亦因為	-19114
伽利略	-19115
你系咪	-19116
佢都唔	-19117
係來自	-19118
傾好嘅	-19119
入面就	-19120
入面補	-19121
全名叫	-19122
冇乜野	-19123
加幅比	-19124
卡迪利	-19125
吉祥物	-19126
同北京	-19127
告士打	-19128
唔好彩	-19129
啲乜嘢	-19130
喺車站	-19131
嘅其他	-19132
嘅唯一	-19133
嘅安全	-19134
嘅政黨	-19135
嘅藝術	-19136
嘅軍隊	-19137
多人識	-19138
大地震	-19139
女歌星	-19140
好明顯	-19141
安哥拉	-19142
就可能	-19143
就決定	-19144
就霸王	-19145
局預算	-19146
差價由	-19147
布爾岡	-19148
後來喺	-19149
微生物	-19150
手球場	-19151
擴展到	-19152
月中旬	-19153
月結果	-19154
有一隻	-19155
有多個	-19156
有相當	-19157
有補貼	-19158
比利亞	-19159
減咗價	-19160
無辦法	-19161
特有嘅	-19162
確立咗	-19163
科索沃	-19164
第十七	-19165
等呢啲	-19166
終於喺	-19167
美術館	-19168
而快線	-19169
聽唔清	-19170
荷蘭人	-19171
號上映	-19172
身上嘅	-19173
轉移到	-19174
轉路環	-19175
運輸機	-19176
鎖轆費	-19177
電磁波	-19178
靈糧堂	-19179
非官守	-19180
面積係	-19181
黃現璠	-19182
▁"),	-19183
▁-。。	-19184
▁係日本	-19185
▁係美國	-19186
▁呢條線	-19187
▁好多時	-19188
▁寶誕響	-19189
▁於是乎	-19190
▁節目會	-19191
上再半價	-19192
不停噉加	-19193
不過因為	-19194
人民公社	-19195
但係補貼	-19196
但冇實行	-19197
佛山地鐵	-19198
佢哋兩個	-19199
傾好嘅分	-19200
兩個月台	-19201
公佈會響	-19202
公園入面	-19203
分區收費	-19204
分鐘一班	-19205
區分收費	-19206
厄瓜多爾	-19207
同一時間	-19208
啲人逼車	-19209
委副書記	-19210
就分普通	-19211
就收四蚊	-19212
已經開始	-19213
年代後期	-19214
年年上升	-19215
廣州市嘅	-19216
快線收費	-19217
惹嚟澳門	-19218
打電話畀	-19219
技工學校	-19220
支持綠色	-19221
普遍認為	-19222
比較大嘅	-19223
民主運動	-19224
澳門通同	-19225
畀電話我	-19226
相對溫和	-19227
知識產權	-19228
硬上弓話	-19229
科學技術	-19230
統一收六	-19231
線嘅轉乘	-19232
線就保留	-19233
耶穌基督	-19234
萬人參加	-19235
補貼費用	-19236
都冇加價	-19237
重有補助	-19238
陽一個縣	-19239
雖然加價	-19240
點都要加	-19241
▁1944	-19242
▁佢上卦係	-19243
不過補少啲	-19244
亦跟住調整	-19245
代表作包括	-19246
係法國一城	-19247
內容唔實行	-19248
凈係可以從	-19249
分階段調整	-19250
加價係基於	-19251
加價同回應	-19252
加價幅度細	-19253
可以細分做	-19254
嗰陣有提到	-19255
學生卡就響	-19256
局預算冇加	-19257
已經響早排	-19258
年中華民國	-19259
年美國電影	-19260
收三蚊葡幣	-19261
斯洛文尼亞	-19262
朝鮮勞動黨	-19263
由政府補貼	-19264
號澳門所有	-19265
變相減咗價	-19266
重話加幅比	-19267
入面補差價由	-19268
冇經過大多數	-19269
加就加夾硬嚟	-19270
又將六十分鐘	-19271
呢條線嘅收費	-19272
咪錶收費用過	-19273
唔再分區收費	-19274
多啲人搭巴士	-19275
就分普通線同	-19276
局先公佈會響	-19277
年遠東運動會	-19278
所以點都要加	-19279
支持綠色出行	-19280
效力大阪飛腳	-19281
新秀歌唱大賽	-19282
東區海底隧道	-19283
澳門通嘅價錢	-19284
用澳門通拍卡	-19285
要求區分收費	-19286
轉乘時間一樣	-19287
錢就不停噉加	-19288
估計全球約莫有	-19289
但今次方案諮詢	-19290
但係由於冇區分	-19291
但係當年第一任	-19292
同返工啲人逼車	-19293
好多年都冇加價	-19294
學生寒暑假期間	-19295
將原本傾好嘅分	-19296
就霸王硬上弓話	-19297
年巴士雖然加價	-19298
普通澳門通收費	-19299
澳門居民同遊客	-19300
澳門線轉澳門線	-19301
統一收六蚊葡幣	-19302
而快線就收四蚊	-19303
轉路環線就保留	-19304
餘額由政府補貼	-19305
交通事務局服務費	-19306
六十分鐘轉乘時間	-19307
嘅全部內容唔實行	-19308
年巴士加價幅度細	-19309
惹嚟澳門市民反感	-19310
普通線收三蚊葡幣	-19311
澳門居民澳門通同	-19312
澳門通拍卡有補貼	-19313
用澳門通拍卡畀錢	-19314
線嘅轉乘安排取消	-19315
老人同殘疾人士卡	-19316
補貼費用年年上升	-19317
調整幅度相對溫和	-19318
但係補貼巴士公司嘅	-19319
公佈巴士加價同回應	-19320
加價係基於澳門巴士	-19321
同埋佢嘅局預算冇加	-19322
同樣理由已經響早排	-19323
唔想老人同殘疾人士	-19324
普通澳門通重有補助	-19325
老人同殘疾人士免費	-19326
號澳門所有公共巴士	-19327
被人批評交通事務局	-19328
交通事務局召開記者會	-19329
冇經過大多數民意支持	-19330
就分普通線同快線收費	-19331
澳門通嘅價錢上再半價	-19332
為咗吸引多啲人搭巴士	-19333
分階段調整咪錶收費用過	-19334
呢條線嘅收費亦跟住調整	-19335
學生寒暑假期間取消優惠	-19336
號嘅氹仔嘉樂庇總督馬路	-19337
轉乘時間一樣四十五分鐘	-19338
但今次方案諮詢嗰陣有提到	-19339
入面補差價由澳門線轉氹仔	-19340
會上交通事務局局長林衍新	-19341
就霸王硬上弓話加就加夾硬嚟	-19342
朝早同晏晝繁忙時間取消優惠	-19343
林衍新話加價係基於澳門巴士	-19344
第一次推出澳門通拍卡有補貼	-19345
但係由於冇區分澳門居民同遊客	-19346
普通澳門通重有補助不過補少啲	-19347
但係補貼巴士公司嘅錢就不停噉加	-19348
學生卡就響澳門通嘅價錢上再半價	-19349
將原本傾好嘅分澳門居民澳門通同	-19350
所以交通事務局補貼費用年年上升	-19351
普通線收三蚊葡幣而快線就收四蚊	-19352
轉路環線就保留六十分鐘轉乘時間	-19353
但係當年第一任交通事務局局長汪雲	-19354
唔想老人同殘疾人士同返工啲人逼車	-19355
為咗吸引多啲人搭巴士支持綠色出行	-19356
號澳門所有公共巴士統一收六蚊葡幣	-19357
▁並	-19358
▁副	-19359
▁工	-19360
▁房	-19361
▁梗	-19362
▁爆	-19363
▁狄	-19364
▁獨	-19365
▁畫	-19366
▁菅	-19367
▁蛇	-19368
一行	-19369
下屬	-19370
中型	-19371
主宰	-19372
之家	-19373
亞伯	-19374
交接	-19375
仙館	-19376
件衫	-19377
但同	-19378
但都	-19379
位畀	-19380
你喺	-19381
例字	-19382
係外	-19383
保仔	-19384
假如	-19385
停課	-19386
先前	-19387
克頓	-19388
全市	-19389
兼容	-19390
冇話	-19391
出賣	-19392
分嘅	-19393
分立	-19394
分舖	-19395
別於	-19396
前期	-19397
劃定	-19398
勞斯	-19399
半夜	-19400
博羅	-19401
合適	-19402
同做	-19403
同正	-19404
同華	-19405
吹襲	-19406
哩佢	-19407
唔買	-19408
商船	-19409
喺天	-19410
四次	-19411
埋佢	-19412
增至	-19413
大肆	-19414
失利	-19415
奠定	-19416
姆斯	-19417
宗嘅	-19418
密歐	-19419
寧縣	-19420
專政	-19421
小嘅	-19422
少奇	-19423
尾站	-19424
尿病	-19425
山寨	-19426
山頭	-19427
左上	-19428
巴哈	-19429
布萊	-19430
年拍	-19431
得番	-19432
悟覺	-19433
惡意	-19434
手中	-19435
承受	-19436
拉麵	-19437
振興	-19438
排水	-19439
推論	-19440
換乘	-19441
摧毀	-19442
支出	-19443
改以	-19444
新南	-19445
時就	-19446
更為	-19447
會做	-19448
月臺	-19449
朝偉	-19450
構思	-19451
橋底	-19452
機翼	-19453
次方	-19454
決戰	-19455
河源	-19456
清新	-19457
測驗	-19458
滑翔	-19459
為生	-19460
熱情	-19461
犯人	-19462
玻色	-19463
白沙	-19464
睇左	-19465
石榴	-19466
結盟	-19467
維園	-19468
羅賓	-19469
而用	-19470
耶夫	-19471
聯播	-19472
聯誼	-19473
聲韻	-19474
聽啊	-19475
腸粉	-19476
腸胃	-19477
英人	-19478
英德	-19479
蘇區	-19480
虹橋	-19481
西甲	-19482
規例	-19483
親共	-19484
評核	-19485
試飛	-19486
賓客	-19487
賦予	-19488
起始	-19489
起步	-19490
輪船	-19491
追究	-19492
通報	-19493
通航	-19494
連奴	-19495
過頭	-19496
道站	-19497
達尼	-19498
金額	-19499
阿斯	-19500
雅各	-19501
青藍	-19502
頭條	-19503
頭痛	-19504
風味	-19505
首度	-19506
馬王	-19507
騷亂	-19508
鬣狗	-19509
133	-19510
210	-19511
▁位於	-19512
▁全國	-19513
▁全球	-19514
▁化學	-19515
▁卡爾	-19516
▁咁嘛	-19517
▁太空	-19518
▁普通	-19519
▁當日	-19520
▁第五	-19521
▁而呢	-19522
▁超級	-19523
▁阿里	-19524
一個鍾	-19525
三十五	-19526
五十鈴	-19527
亦設有	-19528
什葉派	-19529
但佢嘅	-19530
個老婆	-19531
入面都	-19532
兩部分	-19533
出一個	-19534
北延段	-19535
去澳門	-19536
參加者	-19537
只需要	-19538
同管理	-19539
同經濟	-19540
君士坦	-19541
唔到啊	-19542
唔單只	-19543
唔得啊	-19544
唔見咗	-19545
啦咁啊	-19546
嘅反應	-19547
嘅女性	-19548
嘅建議	-19549
嘅機械	-19550
嘅氣候	-19551
嘅網絡	-19552
大法官	-19553
好簡單	-19554
層樓高	-19555
屬嘅一	-19556
帶來嘅	-19557
延伸到	-19558
後面嘅	-19559
得㗎啦	-19560
德育及	-19561
懲教所	-19562
所以我	-19563
接班人	-19564
提到嘅	-19565
星凌日	-19566
最初嘅	-19567
會造成	-19568
有大量	-19569
有爭議	-19570
松花江	-19571
殺死咗	-19572
派出所	-19573
生命嘅	-19574
用呢啲	-19575
由日本	-19576
畀人地	-19577
留學生	-19578
百分點	-19579
盧森堡	-19580
福布斯	-19581
第一場	-19582
等問題	-19583
維他奶	-19584
而呢種	-19585
而家重	-19586
自由邦	-19587
蒙古族	-19588
起咗條	-19589
邊疆區	-19590
部分嘅	-19591
都唔畀	-19592
金字塔	-19593
阿聯酋	-19594
高科技	-19595
1890	-19596
1904	-19597
1908	-19598
▁因為咁	-19599
▁墨西哥	-19600
▁歷史上	-19601
▁總面積	-19602
一齊合作	-19603
中國足球	-19604
九龍城寨	-19605
係奧地利	-19606
可以見到	-19607
合併而成	-19608
喺意大利	-19609
專業人士	-19610
專門負責	-19611
年間做過	-19612
會有一個	-19613
株式會社	-19614
正式成為	-19615
武俠小說	-19616
湖南長沙	-19617
白雲新城	-19618
社會服務	-19619
科幻小說	-19620
科幻電影	-19621
空氣污染	-19622
紀律檢查	-19623
英國首相	-19624
街係香港	-19625
覺得自己	-19626
遊樂設施	-19627
都係一個	-19628
都唔例外	-19629
都差唔多	-19630
,1966	-19631
:""),	-19632
▁1911	-19633
▁呢套劇喺	-19634
▁呢套劇用	-19635
五人足球場	-19636
嘅法定貨幣	-19637
嘅車站一樣	-19638
娛樂新聞台	-19639
打電話畀你	-19640
規模最大嘅	-19641
設計與科技	-19642
醫療輔助隊	-19643
[...]
